{
  "</s>": 0,
  "<unk>": 1,
  ".": 2,
  ",": 3,
  "'": 4,
  "?": 5,
  "\u2581-": 6,
  "\u2581I": 7,
  "\u2581the": 8,
  "s": 9,
  "\u2581you": 10,
  "\u2581to": 11,
  "!": 12,
  "\u2581a": 13,
  "\u2581bir": 14,
  "t": 15,
  "\u2581of": 16,
  "...": 17,
  "\u2581and": 18,
  "\u2581it": 19,
  "\u2581that": 20,
  "\u2581in": 21,
  "\u2581is": 22,
  "m": 23,
  "\u2581You": 24,
  "\u2581ve": 25,
  "\u2581me": 26,
  "\u2581for": 27,
  "\u2581on": 28,
  "\u2581have": 29,
  "n": 30,
  "\u2581be": 31,
  "re": 32,
  "\u2581this": 33,
  "\u2581your": 34,
  "\u2581was": 35,
  "\u2581i\u00e7in": 36,
  "\u2581not": 37,
  "\u2581we": 38,
  "\u2581de": 39,
  "\u2581bu": 40,
  "\u2581Bu": 41,
  "\u2581my": 42,
  "\u2581know": 43,
  "\u2581with": 44,
  "\u2581\"": 45,
  "-": 46,
  "\u2581are": 47,
  "\u2581do": 48,
  "\u2581It": 49,
  "a": 50,
  "\u2581mi": 51,
  "\u2581can": 52,
  "\u2581he": 53,
  "\u2581what": 54,
  "\u2581What": 55,
  "\u2581her": 56,
  "\u2581don": 57,
  "\u2581We": 58,
  "\u2581var": 59,
  "\u2581And": 60,
  "\u2581da": 61,
  "\u2581ne": 62,
  "e": 63,
  "ll": 64,
  "\u2581all": 65,
  "\u2581just": 66,
  "\u2581He": 67,
  "\u2581m\u0131": 68,
  "\u2581like": 69,
  "\u2581here": 70,
  "\u2581they": 71,
  "\u2581de\u011fil": 72,
  "\u2581out": 73,
  "\u2581Evet": 74,
  "\u2581The": 75,
  "\u2581him": 76,
  "\u2581about": 77,
  "\u2581O": 78,
  "\u2581\u00e7ok": 79,
  "\u2581\u015fey": 80,
  "\u2581at": 81,
  "\u2581up": 82,
  "\u2581get": 83,
  "\u2581right": 84,
  "i": 85,
  "\u2581will": 86,
  "\u2581there": 87,
  "d": 88,
  "\u2581go": 89,
  "lar": 90,
  "\u2581Ne": 91,
  "\u2581so": 92,
  "\u2581o": 93,
  "ve": 94,
  "\u2581Bir": 95,
  ":": 96,
  "\u2581one": 97,
  "\u2581That": 98,
  "\u2581daha": 99,
  "\u2581but": 100,
  "\u2581them": 101,
  "\u2581Oh": 102,
  "\u2581from": 103,
  "\u2581No": 104,
  "\u2581ki": 105,
  "\u2581kadar": 106,
  "\u2581no": 107,
  "\u2581an": 108,
  "in": 109,
  "\u2581Ben": 110,
  "\u2581got": 111,
  "\u2581gibi": 112,
  "\u2581as": 113,
  "\u2581(": 114,
  "\u2581want": 115,
  "\u2581think": 116,
  "ler": 117,
  "\u2581ama": 118,
  "\u2581if": 119,
  "\u2581his": 120,
  "\u2581iyi": 121,
  "\u2581Yeah": 122,
  "\u2581who": 123,
  "\u2581But": 124,
  "da": 125,
  "k": 126,
  "\u2581yok": 127,
  "\u2581So": 128,
  ")": 129,
  "\u2581she": 130,
  "\u2581see": 131,
  "\u2581now": 132,
  "\u2581Ama": 133,
  "\u2581Well": 134,
  "\u2581ben": 135,
  "\u2581us": 136,
  "\u2581were": 137,
  "\u2581": 138,
  "\"": 139,
  "\u2581Allah": 140,
  "\u2581going": 141,
  "ya": 142,
  "\u2581back": 143,
  "\u2581time": 144,
  "\u2581zaman": 145,
  "\u0131n": 146,
  "\u2581Hay\u0131r": 147,
  "\u2581did": 148,
  "\u2581gonna": 149,
  "\u2581been": 150,
  "\u2581had": 151,
  "\u2581would": 152,
  "\u2581or": 153,
  "\u2581good": 154,
  ".\"": 155,
  "de": 156,
  "\u2581Hey": 157,
  "\u2581They": 158,
  "\u2581when": 159,
  "\u2581A": 160,
  "\u2581Ve": 161,
  "\u2581This": 162,
  "\u2581oldu\u011funu": 163,
  "\u0131": 164,
  "\u2581has": 165,
  "\u2581by": 166,
  "\u2581say": 167,
  "\u2581She": 168,
  "n\u0131n": 169,
  "la": 170,
  "\u2581our": 171,
  ";": 172,
  "dan": 173,
  "\u2581need": 174,
  "\u2581bana": 175,
  "le": 176,
  "\u2581come": 177,
  "\u2581some": 178,
  "\u2581Tamam": 179,
  "\u2581How": 180,
  "ing": 181,
  "\u2581onu": 182,
  "\u2581could": 183,
  "\u2581said": 184,
  "nin": 185,
  "\u2581Yes": 186,
  "\u2581take": 187,
  "\u2581their": 188,
  "\u2581man": 189,
  "\u2581sen": 190,
  "\u2581way": 191,
  "\u2581how": 192,
  "lar\u0131": 193,
  "leri": 194,
  "\u2581God": 195,
  "\u2581Sen": 196,
  "\u2581benim": 197,
  "\u2581down": 198,
  "\u2581people": 199,
  "\u2581didn": 200,
  "den": 201,
  "\u2581beni": 202,
  "\u2581mu": 203,
  "\u2581sonra": 204,
  "\u2581\u00c7ok": 205,
  "\u2581more": 206,
  "\u2581then": 207,
  "\u2581If": 208,
  "\u2581tell": 209,
  "\u2581Why": 210,
  "y": 211,
  "\u2581Okay": 212,
  "\u2581something": 213,
  "na": 214,
  "\u2581make": 215,
  "\u2581olarak": 216,
  "\u2581really": 217,
  "\u2581ya": 218,
  "\u2581en": 219,
  "\u2581\u00f6nce": 220,
  "\u2581There": 221,
  "\u2581over": 222,
  "\u2581Come": 223,
  "\u2581nas\u0131l": 224,
  "\u2581All": 225,
  "\u2581too": 226,
  "ye": 227,
  "z": 228,
  "\u2581seni": 229,
  "\u2581bunu": 230,
  "\u2581Do": 231,
  "\u2581Don": 232,
  "ed": 233,
  "\u2581'": 234,
  "\u2581sana": 235,
  "\u2581should": 236,
  "\u2581never": 237,
  "\u2581Let": 238,
  "\u2019": 239,
  "\u2581Bunu": 240,
  "\u2581let": 241,
  "\u2581olan": 242,
  "\u2581mean": 243,
  "\u2581little": 244,
  "\u2581misin": 245,
  "\u2581only": 246,
  "\u2581musun": 247,
  "\u2581those": 248,
  "\u2581oldu": 249,
  "\u2581off": 250,
  "\u2581hi\u00e7": 251,
  "\u2581senin": 252,
  "\u2581bile": 253,
  "\u2581My": 254,
  "ne": 255,
  "\u2581Her": 256,
  "\u2581burada": 257,
  "\u2581any": 258,
  "\u2581...": 259,
  "\u2581Neden": 260,
  "u": 261,
  "\u2581doing": 262,
  "\u2581look": 263,
  "li": 264,
  "\u2581am": 265,
  "I": 266,
  "\u2581sadece": 267,
  "\u2581thing": 268,
  "\u2581ile": 269,
  "\u2581into": 270,
  "\u2581Seni": 271,
  "\u2581two": 272,
  "\u2581very": 273,
  "si": 274,
  "\u2581love": 275,
  "\u2581\u0130yi": 276,
  "\u2581son": 277,
  "\u2581where": 278,
  "\u2581Now": 279,
  "\u2581Onu": 280,
  "\u2581much": 281,
  "er": 282,
  "y\u0131": 283,
  "\u2581life": 284,
  "\u2581find": 285,
  "--": 286,
  "\u2581Bana": 287,
  "\u2581help": 288,
  "\u2581why": 289,
  "r": 290,
  "\u2581than": 291,
  "\u2581istiyorum": 292,
  "\u2581other": 293,
  "\u2581even": 294,
  "\u2581before": 295,
  "\u2581day": 296,
  "\u2581okay": 297,
  "\u2581Hadi": 298,
  "\u2581\u015eimdi": 299,
  "\u2581give": 300,
  "\u2581g\u00fczel": 301,
  "\u2581work": 302,
  "sin": 303,
  "\u2581[": 304,
  "\u2581because": 305,
  "yi": 306,
  "\u2581\u00f6yle": 307,
  "\u2581b\u00f6yle": 308,
  "\u2581Just": 309,
  "\u2581Sana": 310,
  "\u2581these": 311,
  "\u2581Beni": 312,
  "\u2581biraz": 313,
  "\u2581sorry": 314,
  "\u2581Where": 315,
  "di": 316,
  "\u2581Sadece": 317,
  "\u2581first": 318,
  "un": 319,
  "\u2581\u015fu": 320,
  "\u2581still": 321,
  "o": 322,
  "\u2581In": 323,
  "\u2581anything": 324,
  "\u2581\u201c": 325,
  "\u2581b\u00fcy\u00fck": 326,
  "\u2581geri": 327,
  "]": 328,
  "\u2581E\u011fer": 329,
  "\u2581olacak": 330,
  "\u2581well": 331,
  "\u2581night": 332,
  "ta": 333,
  "\u2581away": 334,
  "ma": 335,
  "\u2581Are": 336,
  "\u2581Who": 337,
  "\u2581Look": 338,
  "\u2581g\u00fcn": 339,
  "\u2581ba\u015fka": 340,
  "\u2581olur": 341,
  "\u2581neden": 342,
  "\u2581Peki": 343,
  "\u2581which": 344,
  "\u2581iki": 345,
  "\u2581sure": 346,
  "\u2581ona": 347,
  "te": 348,
  "\u2581biri": 349,
  "\u2581call": 350,
  "\u2581things": 351,
  "\u2581talk": 352,
  "\u2581again": 353,
  "\u2581Mr": 354,
  "\u2581thought": 355,
  "\u2581home": 356,
  "\u2581Benim": 357,
  "\u2581do\u011fru": 358,
  "dir": 359,
  "\u2581Not": 360,
  "\u2581onun": 361,
  "l": 362,
  "\u2581Thank": 363,
  "s\u0131": 364,
  "\u2581\u015feyi": 365,
  "\u2581made": 366,
  "\u2581told": 367,
  "l\u0131": 368,
  "s\u0131n": 369,
  "\u2581Bay": 370,
  "\u2581believe": 371,
  "\u2581after": 372,
  "\u2581Can": 373,
  "\u2581diye": 374,
  "\u2581tek": 375,
  "ki": 376,
  "\u2581years": 377,
  "\u2581Yani": 378,
  "tan": 379,
  "ni": 380,
  "\u2581last": 381,
  "\u2581fazla": 382,
  "\u2581put": 383,
  "lar\u0131n\u0131": 384,
  "\u2581Your": 385,
  "\u2581\u266a": 386,
  "\u2581better": 387,
  "\u2581must": 388,
  "im": 389,
  "\u2581yard\u0131m": 390,
  "an": 391,
  "\u2581won": 392,
  "\u2581\u0130\u015fte": 393,
  "\u2581et": 394,
  "\u2581\u015feyler": 395,
  "\u2581When": 396,
  "\u2581Good": 397,
  "d\u0131r": 398,
  "\u2581long": 399,
  "\u2581ederim": 400,
  "\u2581Burada": 401,
  "\u2581guy": 402,
  "\u2581bak": 403,
  "\u2581around": 404,
  "\u2581name": 405,
  "\u2581adam": 406,
  "\u2581Get": 407,
  "\u2581Senin": 408,
  "S": 409,
  "\u2581place": 410,
  "\u2581hakk\u0131nda": 411,
  "\u2581ever": 412,
  "\u2581Then": 413,
  "\u2581Daha": 414,
  "\u2581\u015fimdi": 415,
  "lerini": 416,
  "\u2581k\u00f6t\u00fc": 417,
  "\u2581art\u0131k": 418,
  "\u2581\u00c7\u00fcnk\u00fc": 419,
  "\u2581gece": 420,
  "\u2581great": 421,
  "\u2581Belki": 422,
  "\u2581does": 423,
  "\u2581size": 424,
  "\u2581biliyorum": 425,
  "\u2581olsun": 426,
  "\u2581nothing": 427,
  "ly": 428,
  "\u2581#": 429,
  "\u2581always": 430,
  "\u2581gerek": 431,
  "\u2581kim": 432,
  "\u2581doesn": 433,
  "\u2581please": 434,
  "\u2581new": 435,
  "\u2581may": 436,
  "\u2581i\u015f": 437,
  "\u2581yeni": 438,
  "sa": 439,
  "\u2581Tanr\u0131m": 440,
  "\u2581Did": 441,
  "\u2581\u015eu": 442,
  "\u2581feel": 443,
  "\u2581guys": 444,
  "\u2581tamam": 445,
  "lerin": 446,
  "\u2581being": 447,
  "\u2581keep": 448,
  "\u2581through": 449,
  "\u2581Lord": 450,
  "n\u0131": 451,
  "\u2581everything": 452,
  "lar\u0131n": 453,
  "\u2581Go": 454,
  "yla": 455,
  "\u2581hi\u00e7bir": 456,
  "\u2581g\u00f6re": 457,
  "\u2581world": 458,
  "\u2581ger\u00e7ekten": 459,
  "\u2581olabilir": 460,
  "\u2581hay\u0131r": 461,
  "\u2581kind": 462,
  "\u2581own": 463,
  "\u2581ver": 464,
  "\u2581money": 465,
  "en": 466,
  "\u2581done": 467,
  "d\u0131": 468,
  "\u2581i\u00e7inde": 469,
  "\u2581might": 470,
  "\u2581lot": 471,
  "\u2581came": 472,
  "\u2581kar\u015f\u0131": 473,
  "\u2581\u201d": 474,
  "ten": 475,
  "\u2581sir": 476,
  "\u2581y\u00fczden": 477,
  "\u2581wrong": 478,
  "mi": 479,
  "\u2581old": 480,
  "\u2581leave": 481,
  "\u2581S": 482,
  "\u2581wanted": 483,
  "\u2581\u00d6yle": 484,
  "\u2581left": 485,
  "\u2581demek": 486,
  "p": 487,
  "\u2581happened": 488,
  "\u2581To": 489,
  "\u2581izin": 490,
  "\u2581hear": 491,
  "se": 492,
  "\u2581found": 493,
  "\u2581biz": 494,
  "\u2581Dr": 495,
  "\u2581m\u00fc": 496,
  "\u2581Please": 497,
  "al": 498,
  "\u2581\u015fekilde": 499,
  "\u2581biliyor": 500,
  "\u2581ol": 501,
  "\u2581Biz": 502,
  "\u2581every": 503,
  "\u2581another": 504,
  "yle": 505,
  "\u2581shall": 506,
  "\u2581house": 507,
  "\u2581L\u00fctfen": 508,
  "\u2581Ya": 509,
  "\u2581understand": 510,
  "\u2581coming": 511,
  "\u2581!": 512,
  "\u2581course": 513,
  "\u2581kill": 514,
  "man": 515,
  "lik": 516,
  "\u2581ask": 517,
  "\u2581En": 518,
  "\u2581oluyor": 519,
  "\u2581yer": 520,
  "\u2581For": 521,
  "\u2581Maybe": 522,
  "\u2581nerede": 523,
  "\u2581Nas\u0131l": 524,
  "\u2581ilk": 525,
  "\u2581bad": 526,
  "\u2581onlar\u0131": 527,
  "\u2581girl": 528,
  "iz": 529,
  "\u2581buraya": 530,
  "\u2581Bak": 531,
  "\u2581father": 532,
  "\u2581dead": 533,
  "\u2581vard\u0131": 534,
  "\u2581big": 535,
  "\u2581Merhaba": 536,
  "\u2581stop": 537,
  "\u2581i\u015fte": 538,
  "\u2581orada": 539,
  "\u2581y\u0131l": 540,
  "\u2581\u00e7\u00fcnk\u00fc": 541,
  "\u2581kendi": 542,
  "\u2581talking": 543,
  "\u2581same": 544,
  "\u2581someone": 545,
  "daki": 546,
  "\u2581ayn\u0131": 547,
  "\u2581else": 548,
  "\u2581olmak": 549,
  "A": 550,
  "\u2581Ger\u00e7ekten": 551,
  "\u2581Hi\u00e7": 552,
  "\u2581three": 553,
  "\u2581t\u00fcm": 554,
  "me": 555,
  "\u2581k\u0131z": 556,
  "\u2581San\u0131r\u0131m": 557,
  "\u2581efendim": 558,
  "\u2581enough": 559,
  "\u2581Ona": 560,
  "\u2581l\u00fctfen": 561,
  "\u2581hell": 562,
  "\u2581k\u00fc\u00e7\u00fck": 563,
  "O": 564,
  "\u2581many": 565,
  "ca": 566,
  "\u2581car": 567,
  "\u2581care": 568,
  "\u2581Kim": 569,
  "\u2581Here": 570,
  "\u2581fine": 571,
  "\u2581uh": 572,
  "ti": 573,
  "\u2581Sonra": 574,
  "\u2581isn": 575,
  "\u2581s\u00f6yledi": 576,
  "\u2581ilgili": 577,
  "\u2581onlar": 578,
  "\u2581geldi": 579,
  "\u2581Uh": 580,
  "\u2581devam": 581,
  "\u2581trying": 582,
  "\u2581oldu\u011fu": 583,
  "\u2581getting": 584,
  "\u2581family": 585,
  "\u2581Te\u015fekk\u00fcrler": 586,
  "\u2581Tanr\u0131": 587,
  "\u2581went": 588,
  "\u2581best": 589,
  "um": 590,
  "\u2581His": 591,
  "m\u0131\u015f": 592,
  "\u2581looking": 593,
  "\u2581remember": 594,
  "\u2581birlikte": 595,
  "lere": 596,
  "\u25812": 597,
  "\u2581show": 598,
  "\u2581--": 599,
  "ce": 600,
  "\u2581saw": 601,
  "\u2581bize": 602,
  "uz": 603,
  "\u2581de\u011filim": 604,
  "\u2581men": 605,
  "\u2581Right": 606,
  "\u2581together": 607,
  "\u2581al": 608,
  "\u2581mother": 609,
  "\u2581most": 610,
  "\u2581Because": 611,
  "\u2581yani": 612,
  "\u2581friend": 613,
  "ini": 614,
  "\u2581tam": 615,
  "\u2581wasn": 616,
  "\u2581used": 617,
  "\u2581today": 618,
  "\u2581As": 619,
  "\u25811": 620,
  "\u2581Onun": 621,
  "\u2581yourself": 622,
  "\u2581dakika": 623,
  "\u2581also": 624,
  "\u2581para": 625,
  "\u2581i": 626,
  "\u2581real": 627,
  "l\u0131k": 628,
  "\u2581One": 629,
  "\u2581m\u0131s\u0131n": 630,
  "\u2581s\u00f6yle": 631,
  "\u2581nice": 632,
  "lara": 633,
  "\u2581wait": 634,
  "\u2581b\u00fct\u00fcn": 635,
  "\u2581laz\u0131m": 636,
  "\u2581etmek": 637,
  "\u2581yeah": 638,
  "\u2581stay": 639,
  "\u2581ister": 640,
  "\u2581Bunun": 641,
  "\u2581job": 642,
  "\u2581Art\u0131k": 643,
  "nun": 644,
  "\u2581mind": 645,
  "\u2581G\u00fczel": 646,
  "?\"": 647,
  "\u25813": 648,
  "\u2581called": 649,
  "\u2581Hello": 650,
  "to": 651,
  "\u2581Bayan": 652,
  "\u2581next": 653,
  "T": 654,
  "\u2581seen": 655,
  "\u2581already": 656,
  "\u2581Al": 657,
  "\u2581took": 658,
  "\u258110": 659,
  "\u2581boy": 660,
  "\u2581dedi": 661,
  "\u2581room": 662,
  "\u2581geliyor": 663,
  "\u2581knew": 664,
  "du": 665,
  "\u2581while": 666,
  "\u2581Ah": 667,
  "nda": 668,
  "\u2581head": 669,
  "m\u0131": 670,
  "\u2581without": 671,
  "\u2581try": 672,
  "\u2581sizi": 673,
  "\u2581problem": 674,
  "\u2581Biraz": 675,
  "\u2581use": 676,
  "\u2581istiyorsun": 677,
  "h": 678,
  "\u2581idea": 679,
  "\u2581Pekala": 680,
  "\u2581heard": 681,
  "\u2581live": 682,
  "\u2581Thanks": 683,
  "th": 684,
  "\u2581yet": 685,
  "\u2581saying": 686,
  "\u0131m": 687,
  "\u2581maybe": 688,
  "\u2581fucking": 689,
  "\u2581such": 690,
  "\u2581edin": 691,
  "sun": 692,
  "\u2581sizin": 693,
  "\u2581Wait": 694,
  "\u2581miyim": 695,
  "\u2581siz": 696,
  "\u2581gel": 697,
  "\u2581whole": 698,
  "\u2581Or": 699,
  "\u2581woman": 700,
  "D": 701,
  "\u2581yap\u0131yorsun": 702,
  "g": 703,
  "\u2581tekrar": 704,
  "\u2581onlara": 705,
  "\u2581asla": 706,
  "\u2581\u00f6nemli": 707,
  "\u2581bunun": 708,
  "\u2581yere": 709,
  "\u2581bilmiyorum": 710,
  "\u2581wouldn": 711,
  "mi\u015f": 712,
  "c": 713,
  "\u2581ger\u00e7ek": 714,
  "\u2581B": 715,
  "\u2581days": 716,
  "\u2581ki\u015fi": 717,
  "\u2581baby": 718,
  "\u2581wife": 719,
  "\u2581Of": 720,
  "\u2581Have": 721,
  "\u2581bizi": 722,
  "\u2581killed": 723,
  "\u2581wanna": 724,
  "\u2581bakal\u0131m": 725,
  "\u2581De": 726,
  "san": 727,
  "\u2581zor": 728,
  "\u2581K": 729,
  "sini": 730,
  "\u2581sorun": 731,
  "\u2581\u00e7ocuk": 732,
  "\u2581Onlar": 733,
  "\u2581ago": 734,
  "\u2581shit": 735,
  "ken": 736,
  "\u2581end": 737,
  "es": 738,
  "\u2581vard\u0131r": 739,
  "\u2581At": 740,
  "\u2581olmaz": 741,
  "\u2581s\u00f6z": 742,
  "\u2581saat": 743,
  "\u2581ka\u00e7": 744,
  "\u2581few": 745,
  "\u2581morning": 746,
  "\u2581hemen": 747,
  "\u2581gotta": 748,
  "\u2581istemiyorum": 749,
  "f": 750,
  "\u2581dilerim": 751,
  "\u2581kimse": 752,
  "\u2581az": 753,
  "lar\u0131na": 754,
  "\u2581both": 755,
  "\u2581tane": 756,
  "\u2581bit": 757,
  "\u2581hard": 758,
  "\u2581against": 759,
  "\u2581start": 760,
  "\u2581olmal\u0131": 761,
  "\u2581dostum": 762,
  "\u2581meet": 763,
  "\u2581actually": 764,
  "\u2581matter": 765,
  "\u2581i\u015fe": 766,
  "\u2581bring": 767,
  "siniz": 768,
  "\u2581Sorry": 769,
  "\u2581bizim": 770,
  "\u2581uzun": 771,
  "\u2581evet": 772,
  "\u2581pek": 773,
  "\u2581says": 774,
  "\u2581guess": 775,
  "\u2581until": 776,
  "\u2581ise": 777,
  "\u2581Tabii": 778,
  "\u258120": 779,
  "\u2581gerekiyor": 780,
  "\u2581?": 781,
  "lu": 782,
  "\u2581move": 783,
  "\u2581part": 784,
  "\u2581Siz": 785,
  "\u2581Ba\u015fka": 786,
  "dur": 787,
  "\u2581school": 788,
  "\u2581pretty": 789,
  "\u2581yapmak": 790,
  "\u2581harika": 791,
  "n\u0131z": 792,
  "\u2581anda": 793,
  "\u2581E": 794,
  "C": 795,
  "on": 796,
  "\u2581yoksa": 797,
  "\u2581i\u015fi": 798,
  "/": 799,
  "\u2581kabul": 800,
  "\u2581etti": 801,
  "ine": 802,
  "\u2581biliyorsun": 803,
  "\u2581alone": 804,
  "\u2581e\u011fer": 805,
  "\u2581gone": 806,
  "\u2581each": 807,
  "\u2581\u00fc\u00e7": 808,
  "s\u0131n\u0131": 809,
  "\u2581ediyorum": 810,
  "\u2581insan": 811,
  "\u2581C": 812,
  "\u2581D": 813,
  "\u2581New": 814,
  "\u2581veya": 815,
  "\u2581yerde": 816,
  "\u2581turn": 817,
  "\u2581face": 818,
  "\u2581Haydi": 819,
  "\u2581zaten": 820,
  "\u2581case": 821,
  "\u2581myself": 822,
  "\u2581year": 823,
  "t\u0131r": 824,
  "\u2581die": 825,
  "\u2581brother": 826,
  "\u2581John": 827,
  "\u2581friends": 828,
  "\u2581Sorun": 829,
  "\u2581emin": 830,
  "\u2581taraf\u0131ndan": 831,
  "\u2581\u00dczg\u00fcn\u00fcm": 832,
  "deki": 833,
  "\u2581ready": 834,
  "\u2581See": 835,
  "\u2581b\u0131rak": 836,
  "\u2581Take": 837,
  "\u2581true": 838,
  "\u2581under": 839,
  "\u2581Bilmiyorum": 840,
  "\u2581hand": 841,
  "\u2581kad\u0131n": 842,
  "\u2581anyone": 843,
  "\u2581istiyor": 844,
  "b": 845,
  "\u2581insanlar": 846,
  "ndan": 847,
  "\u2581haven": 848,
  "\u2581ediyor": 849,
  "\u2581*": 850,
  "lerine": 851,
  "\u2581zorunda": 852,
  "mak": 853,
  "\u2581sent": 854,
  "\u2581\u0130ki": 855,
  "\u2581Biliyorum": 856,
  "\u2581hafta": 857,
  "\u2581wants": 858,
  "\u2581truth": 859,
  "\u2581run": 860,
  "\u2581gave": 861,
  "\u2581Tell": 862,
  "\u2581lost": 863,
  "\u015f": 864,
  "\u2581play": 865,
  "\u2581Dur": 866,
  "\u2581Harika": 867,
  "\u2581haz\u0131r": 868,
  "ar": 869,
  "\u2581hala": 870,
  "\u2581G": 871,
  "\u2581kez": 872,
  "t\u0131": 873,
  "\u2581Te\u015fekk\u00fcr": 874,
  "\u2581onlar\u0131n": 875,
  "\u2581T\u00fcm": 876,
  "\u2581Me": 877,
  "lerden": 878,
  "\u2581Like": 879,
  "\u2581nedir": 880,
  "lardan": 881,
  "\u2581hope": 882,
  "\u2581On": 883,
  "\u2581Asl\u0131nda": 884,
  "\u2581Anne": 885,
  "tir": 886,
  "\u2581second": 887,
  "ci": 888,
  "\u2581g\u00f6rmek": 889,
  "\u2581git": 890,
  "acak": 891,
  "us": 892,
  "\u2581between": 893,
  "\u2581knows": 894,
  "\u2581once": 895,
  "\u2581Bence": 896,
  "\u2581gereken": 897,
  "\u2581birka\u00e7": 898,
  "\u2581Fakat": 899,
  "K": 900,
  "\u2581having": 901,
  "\u2581misiniz": 902,
  "\u2581Our": 903,
  "\u2581heart": 904,
  "yd\u0131": 905,
  "\u2581di\u011fer": 906,
  "\u2581Son": 907,
  "\u2581couldn": 908,
  "\u2581person": 909,
  "\u2581Do\u011fru": 910,
  "\u2581Jack": 911,
  "x": 912,
  "\u2581means": 913,
  "\u2581B\u00fct\u00fcn": 914,
  "\u2581since": 915,
  "\u2581belki": 916,
  "B": 917,
  "\u2581..": 918,
  "\u2581set": 919,
  "\u2581working": 920,
  "\u2581death": 921,
  "\u2581fuck": 922,
  "\u2581Buraya": 923,
  "d\u0131m": 924,
  "\u2581water": 925,
  "\u2581hep": 926,
  "\u2581Hi\u00e7bir": 927,
  "\u2581times": 928,
  "\u2581karar": 929,
  "\u2581tonight": 930,
  "\u2581thinking": 931,
  "\u2581business": 932,
  "\u2581ge\u00e7": 933,
  "\u2581etme": 934,
  "\u2581ha": 935,
  "M": 936,
  "nde": 937,
  "\u2581happy": 938,
  "\u2581far": 939,
  "\u2581seviyorum": 940,
  "m\u0131z": 941,
  "\u2581B\u00f6yle": 942,
  "\u2581pay": 943,
  "sen": 944,
  "\u2581phone": 945,
  "\u2581P": 946,
  "\u2581yol": 947,
  "\u2581T": 948,
  "\u2581stuff": 949,
  "\u2581kontrol": 950,
  "\u25815": 951,
  "\u2581falan": 952,
  "\u2581\u00fczerinde": 953,
  "\u2581open": 954,
  "\u2581later": 955,
  "\u2581deal": 956,
  "),": 957,
  "\u2581plan": 958,
  "\u2581eski": 959,
  "E": 960,
  "\u2581change": 961,
  "\u2581yerine": 962,
  "\u2581Will": 963,
  "\u2581haber": 964,
  "\u2581yine": 965,
  "\u2581a\u00e7\u0131k": 966,
  "P": 967,
  "\u2581soon": 968,
  "\u2581Baba": 969,
  "\u2581kid": 970,
  "\u2581door": 971,
  "\u2581su": 972,
  "\u2581happen": 973,
  "G": 974,
  "\u2581point": 975,
  "em": 976,
  "\u2581earth": 977,
  "\u2581yes": 978,
  "\u2581buna": 979,
  "\u2581kal": 980,
  "ydi": 981,
  "\u2581kids": 982,
  "\u2581yalan": 983,
  "miz": 984,
  "\u2581Sam": 985,
  "\u2581Orada": 986,
  "\u2581Dad": 987,
  "\u2581worry": 988,
  "\u2581Aman": 989,
  "\u2581\u015funu": 990,
  "\u00fc": 991,
  "\u2581tomorrow": 992,
  "\u2581beri": 993,
  "dim": 994,
  "\u2581sahip": 995,
  "\u2581benimle": 996,
  "ir": 997,
  "\u2581different": 998,
  "\u2581Listen": 999,
  "\u2581late": 1000,
  "\u2581listen": 1001,
  "\u2581Really": 1002,
  "\u2581onunla": 1003,
  "\u2581eve": 1004,
  "\u2581dad": 1005,
  "\u2581number": 1006,
  "niz": 1007,
  "\u2581OK": 1008,
  "\u2581ye": 1009,
  "\u2581\u00e7\u0131kar": 1010,
  "ra": 1011,
  "\u2581Tam": 1012,
  "\u2581eyes": 1013,
  "\u2581Bug\u00fcn": 1014,
  "\u2581taking": 1015,
  "\u2581word": 1016,
  "\u2581yap": 1017,
  "\u2581de\u011fildi": 1018,
  "\u2581minutes": 1019,
  "yu": 1020,
  "\u0131n\u0131": 1021,
  "\u2581hadi": 1022,
  "\u2581asked": 1023,
  "\u2581children": 1024,
  "\u2581Give": 1025,
  "\u2581Stop": 1026,
  "\u2581hands": 1027,
  "\u2581eat": 1028,
  "\u2581body": 1029,
  "\u2581makes": 1030,
  "\u2581anne": 1031,
  "\u2581probably": 1032,
  "\u2581huh": 1033,
  "\u2581seninle": 1034,
  "\u2581Buna": 1035,
  "\u25814": 1036,
  "\u2581musunuz": 1037,
  "\u2581Size": 1038,
  "ton": 1039,
  "\u0131p": 1040,
  "\u2581farkl\u0131": 1041,
  "\u2581Gel": 1042,
  "\u2581Ha": 1043,
  "din": 1044,
  "\u00e7": 1045,
  "the": 1046,
  "\u2581dur": 1047,
  "\u2581hurt": 1048,
  "\u2581thank": 1049,
  "\u2581Nothing": 1050,
  "v": 1051,
  "\u2581ay": 1052,
  "\u2581olmas\u0131": 1053,
  "ka": 1054,
  "\u2581\u2014": 1055,
  "\u2581ara": 1056,
  "\u2581everyone": 1057,
  "\u2581Be": 1058,
  "\u2581minute": 1059,
  "\u2581supposed": 1060,
  "il": 1061,
  "\u2581Jesus": 1062,
  "el": 1063,
  "\u2581Bekle": 1064,
  "\u2581least": 1065,
  "\u2581baz\u0131": 1066,
  "\u2581baba": 1067,
  "\u2581\u00e7ocuklar": 1068,
  "\u2581making": 1069,
  "it": 1070,
  "\u2581crazy": 1071,
  "\u2581inside": 1072,
  "\u2581kendini": 1073,
  "\u2581aras\u0131nda": 1074,
  "\u258115": 1075,
  "\u2581Yeni": 1076,
  "\u2581eder": 1077,
  "lar\u0131ndan": 1078,
  "\u2581buradan": 1079,
  "\u2581Man": 1080,
  "son": 1081,
  "s\u0131n\u0131z": 1082,
  "\u2581side": 1083,
  "\u2581ho\u015f": 1084,
  "\u2581Hemen": 1085,
  "\u2581close": 1086,
  "ur": 1087,
  "\u2581konusunda": 1088,
  "\u2581Adam": 1089,
  "\u2581blood": 1090,
  "\u2581comes": 1091,
  "\u2581gitti": 1092,
  "\u2581dedim": 1093,
  "\u2581brought": 1094,
  "\u2581Ayr\u0131ca": 1095,
  "\u2581important": 1096,
  "\u2581ihtiyac\u0131m": 1097,
  "\u2581\u00d6z\u00fcr": 1098,
  "\u2581story": 1099,
  "\u2581upon": 1100,
  "\u2581hit": 1101,
  "\u2581Onlar\u0131": 1102,
  "\u2581olmu\u015f": 1103,
  "\u2581rest": 1104,
  "\u2581g\u00f6rd\u00fcm": 1105,
  "\u2581able": 1106,
  "\u2581g\u00fcn\u00fc": 1107,
  "\u2581fight": 1108,
  "\u2581five": 1109,
  "be": 1110,
  "\u2581Tek": 1111,
  "\u2581s\u00fcre": 1112,
  "\u2581With": 1113,
  "\u2581party": 1114,
  "\u2581san\u0131r\u0131m": 1115,
  "\u2581power": 1116,
  "do": 1117,
  "\u2581chance": 1118,
  "\u2581drink": 1119,
  "\u2581looks": 1120,
  "\u2581women": 1121,
  "\u2581An": 1122,
  "mu\u015f": 1123,
  "\u2581week": 1124,
  "\u2581mom": 1125,
  "\u2581\u00f6zel": 1126,
  "\u2581hold": 1127,
  "\u2581police": 1128,
  "\u2581re": 1129,
  "\u2581birini": 1130,
  "\u2581though": 1131,
  "\u2581boyunca": 1132,
  "\u2581Say": 1133,
  "\u0131r": 1134,
  "\u2581gidiyor": 1135,
  "\u2581beautiful": 1136,
  "\u2581yaln\u0131z": 1137,
  "\u2581halde": 1138,
  "sine": 1139,
  "lerinden": 1140,
  "\u2581hours": 1141,
  "\u2581Hi": 1142,
  "\u2581read": 1143,
  "\u2581Geri": 1144,
  "\u2581Mom": 1145,
  "at": 1146,
  "\u2581erkek": 1147,
  "\u2581Elbette": 1148,
  "\u2581reason": 1149,
  "yim": 1150,
  "\u2581clear": 1151,
  "\u2581Excuse": 1152,
  "\u2581bekle": 1153,
  "\u2581young": 1154,
  "\u2581yemek": 1155,
  "nden": 1156,
  "\u2581yapma": 1157,
  "\u2581behind": 1158,
  "\u2581wish": 1159,
  "\u2581gelen": 1160,
  "ers": 1161,
  "\u2581yak\u0131n": 1162,
  "\u2581high": 1163,
  "\u2581eden": 1164,
  "\u2581fark": 1165,
  "y\u0131m": 1166,
  "or": 1167,
  "up": 1168,
  "\u2581fun": 1169,
  "\u2581\u015f\u00f6yle": 1170,
  "am": 1171,
  "\u2581\u00fczg\u00fcn\u00fcm": 1172,
  "\u2581four": 1173,
  "\u2581fire": 1174,
  "\u2581Ma": 1175,
  "\u2581exactly": 1176,
  "\u2581sleep": 1177,
  "\u2581daughter": 1178,
  "\u2581ain": 1179,
  "ip": 1180,
  "\u2581question": 1181,
  "\u2581\u0130lk": 1182,
  "\u2581mine": 1183,
  "\u2581nefret": 1184,
  "\u2581afraid": 1185,
  "\u2581beraber": 1186,
  "c\u0131": 1187,
  "\u2581started": 1188,
  "!\"": 1189,
  "\u2581te\u015fekk\u00fcr": 1190,
  "\u2581y\u00fcz\u00fcnden": 1191,
  "ha": 1192,
  "\u2581yanl\u0131\u015f": 1193,
  "\u2581\u2019": 1194,
  "\u2581dinle": 1195,
  "\u2581These": 1196,
  "\u258112": 1197,
  "\u2581ettim": 1198,
  "\u2581de\u011filsin": 1199,
  "\u2581husband": 1200,
  "\u2581hem": 1201,
  "\u2581bin": 1202,
  "\u2581Sure": 1203,
  "\u2581neler": 1204,
  "\u2581watch": 1205,
  "\u2581full": 1206,
  "lerle": 1207,
  "\u2581town": 1208,
  "\u2581\u00fczerine": 1209,
  "\u2581ak\u015fam": 1210,
  "\u2581bug\u00fcn": 1211,
  "\u2581child": 1212,
  "\u2581check": 1213,
  "\u2581speak": 1214,
  "\u2581news": 1215,
  "\u2581Herkes": 1216,
  "\u2581te\u015fekk\u00fcrler": 1217,
  "\u2581shot": 1218,
  "\u2581yapt\u0131m": 1219,
  "\u2581sa\u011f": 1220,
  "\u2581a\u00e7": 1221,
  "\u2581istedi\u011fim": 1222,
  "\u258130": 1223,
  "\u2581olsa": 1224,
  "\u2581game": 1225,
  "\u2581Buras\u0131": 1226,
  "\u2581met": 1227,
  "\u2581B\u00fcy\u00fck": 1228,
  "\u2581ancak": 1229,
  "\u2581died": 1230,
  "\u2581gets": 1231,
  "\u2581benden": 1232,
  "\u2581whatever": 1233,
  "\u2581mutlu": 1234,
  "\u2581trust": 1235,
  "\u2581become": 1236,
  "\u2581Pek\u00e2l\u00e2": 1237,
  "\u2581country": 1238,
  "siz": 1239,
  "\u2581anymore": 1240,
  "\u2581olursa": 1241,
  "\u2581months": 1242,
  "mek": 1243,
  "\u2581olmad\u0131\u011f\u0131n\u0131": 1244,
  ",\"": 1245,
  "\u2581moment": 1246,
  "\u2581\u00fczere": 1247,
  "is": 1248,
  "\u2581oldu\u011fumu": 1249,
  "\u2581waiting": 1250,
  "\u2581free": 1251,
  "\u2581\u015eey": 1252,
  "\u25816": 1253,
  "\u2581yan\u0131nda": 1254,
  "\u0131yor": 1255,
  "\u2581yolu": 1256,
  "\u2581half": 1257,
  "\u2581Yine": 1258,
  "\u2581line": 1259,
  "\u2581yard\u0131mc\u0131": 1260,
  "\u2581save": 1261,
  "\u2581Michael": 1262,
  "\u2581alt\u0131nda": 1263,
  "\u2581tried": 1264,
  "\u2581Lanet": 1265,
  "\u2581M": 1266,
  "\u2581gidelim": 1267,
  "\u2581among": 1268,
  "\u2581easy": 1269,
  "\u2581yap\u0131yor": 1270,
  "\u2581gidip": 1271,
  "\u2581Re": 1272,
  "\u2581herkes": 1273,
  "\u2581Sir": 1274,
  "\u2581un": 1275,
  "\u2581sava\u015f": 1276,
  "\u2581goes": 1277,
  "\u2581Seninle": 1278,
  "\u2581ac\u0131": 1279,
  "\u2581ondan": 1280,
  "F": 1281,
  "\u2581Sizi": 1282,
  "\u2581couple": 1283,
  "lar\u0131nda": 1284,
  "\u2581married": 1285,
  "\u2581almak": 1286,
  "\u2581fact": 1287,
  "\u2581given": 1288,
  "\u2581telling": 1289,
  "ul": 1290,
  "\u2581hepsi": 1291,
  "\u2581needs": 1292,
  "\u2581break": 1293,
  "larla": 1294,
  "\u2581bunlar": 1295,
  "\u2581yoktu": 1296,
  "ic": 1297,
  "\u2581Him": 1298,
  "\u2581\u00f6z\u00fcr": 1299,
  "\u2581sabah": 1300,
  "ri": 1301,
  "Bu": 1302,
  "\u2581walk": 1303,
  "\u2581order": 1304,
  "\u2581hey": 1305,
  "\u2581g\u00f6r\u00fcn\u00fcyor": 1306,
  "\u2581Charlie": 1307,
  "\u2581stand": 1308,
  "\u2581La": 1309,
  "\u2581\u00f6ld\u00fc": 1310,
  "\u2581olun": 1311,
  "\u2581fakat": 1312,
  "\u2581bir\u015fey": 1313,
  "lard\u0131": 1314,
  "\u2581um": 1315,
  "ba": 1316,
  "\u2581light": 1317,
  "\u2581Nereye": 1318,
  "\u2581Um": 1319,
  "no": 1320,
  "\u2581cut": 1321,
  "\u2581yapt\u0131": 1322,
  "\u2581verdi": 1323,
  "\u2581d\u0131\u015far\u0131": 1324,
  "\u2581g\u00f6z": 1325,
  "\u2581y\u00fcz": 1326,
  "\u2581York": 1327,
  "\u2581office": 1328,
  "\u2581getir": 1329,
  "\u258118": 1330,
  "R": 1331,
  "\u2581e": 1332,
  "\u2581war": 1333,
  "ro": 1334,
  "\u2581ma": 1335,
  "\u2581Frank": 1336,
  "\u2581ba\u015f\u0131na": 1337,
  "\u2581Demek": 1338,
  "\u2581Mrs": 1339,
  "H": 1340,
  "\u0131z": 1341,
  "\u2581kolay": 1342,
  "va": 1343,
  "\u258119": 1344,
  "\u2581food": 1345,
  "za": 1346,
  "\u2581U": 1347,
  "\u2581Tom": 1348,
  "\u2581YOU": 1349,
  "\u2581Bunlar": 1350,
  "\u2581konuda": 1351,
  "\u2581answer": 1352,
  "\u2581gun": 1353,
  "\u2581\u0130sa": 1354,
  "\u2581Nerede": 1355,
  "\u2581taken": 1356,
  "\u2581Kendi": 1357,
  "\u2581sister": 1358,
  "\u2581yapt\u0131n": 1359,
  "\u2581others": 1360,
  "\u2581hate": 1361,
  "\u2581durumda": 1362,
  "\u2581de\u011fildir": 1363,
  "You": 1364,
  "\u2581s\u00f6yl\u00fcyor": 1365,
  "\u2581durum": 1366,
  "The": 1367,
  "\u2581dolar": 1368,
  "\u2581front": 1369,
  "\u2581s\u00fcr\u00fc": 1370,
  "\u2581forget": 1371,
  "\u2581Those": 1372,
  "\u2581oraya": 1373,
  "\u2581alive": 1374,
  "\u2581asl\u0131nda": 1375,
  "\u2581i\u00e7eri": 1376,
  "\u2581parents": 1377,
  "ko": 1378,
  "\u2581sit": 1379,
  "\u2581Hepsi": 1380,
  "\u2581F": 1381,
  "\u2581city": 1382,
  "\u2581gelecek": 1383,
  "\u2581ass": 1384,
  "min": 1385,
  "ecek": 1386,
  "\u2581either": 1387,
  "\u2581Miss": 1388,
  "ter": 1389,
  "\u2581almost": 1390,
  "\u2581saniye": 1391,
  "\u2581George": 1392,
  "\u2581book": 1393,
  "n\u0131z\u0131": 1394,
  "\u2581promise": 1395,
  "\u2581Peter": 1396,
  "\u2581normal": 1397,
  "\u2581ald\u0131m": 1398,
  "\u2581send": 1399,
  "\u2581safe": 1400,
  "\u2581fear": 1401,
  "\u2581tatl\u0131m": 1402,
  "\u2581cannot": 1403,
  "w": 1404,
  "\u2581hak": 1405,
  "arak": 1406,
  "\u2581bundan": 1407,
  "\u2581t\u00fcr": 1408,
  "\u2581somebody": 1409,
  "\u2581d\u0131\u015f\u0131nda": 1410,
  "\u2581human": 1411,
  "\u2581By": 1412,
  "lan": 1413,
  "\u2581Ancak": 1414,
  "\u2581Would": 1415,
  "N": 1416,
  "\u2581dikkat": 1417,
  "\u2581B\u0131rak": 1418,
  "\u2581tabii": 1419,
  "\u2581quite": 1420,
  "\u2581adam\u0131": 1421,
  "ge": 1422,
  "s\u0131z": 1423,
  "\u00fcn": 1424,
  "\u2581himself": 1425,
  "s\u0131na": 1426,
  "\u2581Dinle": 1427,
  "\u2581bed": 1428,
  "\u2581yoktur": 1429,
  "\u2581cevap": 1430,
  "\u2581living": 1431,
  "lar\u0131n\u0131n": 1432,
  "\u2581girls": 1433,
  "\u2581\u015feye": 1434,
  "\u2581zaman\u0131": 1435,
  "\u2581trouble": 1436,
  "\u2581top": 1437,
  "\u2581Paul": 1438,
  "\u2581Onunla": 1439,
  "et": 1440,
  "\u2581Some": 1441,
  "\u2581Which": 1442,
  "\u2581Day": 1443,
  "\u2581ortaya": 1444,
  "\u2581L": 1445,
  "\u2581h\u00e2l\u00e2": 1446,
  "\u2581gelir": 1447,
  "\u2581aren": 1448,
  "\u2581\u00e7\u0131kt\u0131": 1449,
  "\u2581be\u015f": 1450,
  "\u2581s\u00f6yledim": 1451,
  "\u2581Doktor": 1452,
  "\u2581d\u00fcnya": 1453,
  "\u2581ba\u015flad\u0131": 1454,
  "\u2581\u015feyleri": 1455,
  "\u2581whom": 1456,
  "\u2581outside": 1457,
  "ley": 1458,
  "\u2581\u015feyin": 1459,
  "\u2581gen\u00e7": 1460,
  "\u2581Benimle": 1461,
  "\u2581senden": 1462,
  "larda": 1463,
  "\u2581Kesinlikle": 1464,
  "\u2581uzak": 1465,
  "\u2581hayal": 1466,
  "\u2581buy": 1467,
  "bi": 1468,
  "su": 1469,
  "nu": 1470,
  "ie": 1471,
  "\u2581oldum": 1472,
  "\u2581along": 1473,
  "and": 1474,
  "\u2581kan": 1475,
  "\u2581team": 1476,
  "\u2581Yok": 1477,
  "\u2581After": 1478,
  "\u2581varsa": 1479,
  "ke": 1480,
  "\u2581oldu\u011funa": 1481,
  "\u2581nereden": 1482,
  "\u2581Great": 1483,
  "\u25817": 1484,
  "\u2581Su": 1485,
  "\u2581az\u0131ndan": 1486,
  "\u2581insanlar\u0131n": 1487,
  "\u2581lives": 1488,
  "\u2581film": 1489,
  "Y": 1490,
  "\u2581polis": 1491,
  "go": 1492,
  "\u2581Even": 1493,
  "bu": 1494,
  "\u2581istedim": 1495,
  "\u2581takip": 1496,
  "\u2581l": 1497,
  "\u2581Bize": 1498,
  "\u2581Mike": 1499,
  "\u2581zarar": 1500,
  "\u2581Kimse": 1501,
  "\u2581El": 1502,
  "\u2581ahead": 1503,
  "\u2581hareket": 1504,
  "\u2581doctor": 1505,
  "\u2581Efendim": 1506,
  "\u2581aptal": 1507,
  "\u2581Bizi": 1508,
  "\u2581Sa\u011f": 1509,
  "\u2581stupid": 1510,
  "\u2581yolunda": 1511,
  "\u2581\u2018": 1512,
  "\u2581i\u015fin": 1513,
  "\u2581test": 1514,
  "lerinin": 1515,
  "\u2581konu\u015fmak": 1516,
  "\u2581past": 1517,
  "\u2581Jehovah": 1518,
  "aca\u011f\u0131m": 1519,
  "san\u0131z": 1520,
  "\u2581tamamen": 1521,
  "lerde": 1522,
  "sam": 1523,
  "\u2581yeniden": 1524,
  "\u2581six": 1525,
  "\u2581geldim": 1526,
  "\u2581i\u00e7": 1527,
  "\u2581David": 1528,
  "\u2581Yar\u0131n": 1529,
  "\u2581ev": 1530,
  "\u2581miyiz": 1531,
  "\u2581Git": 1532,
  "\u2581running": 1533,
  "\u2581hot": 1534,
  "\u2581Yard\u0131m": 1535,
  "\u2581ait": 1536,
  "\u2581soru": 1537,
  "\u2581d\u00fc\u015f\u00fcn\u00fcyorsun": 1538,
  "\u2581y\u00fcksek": 1539,
  "\u2581bilgi": 1540,
  "\u2581peki": 1541,
  "l\u00fc": 1542,
  "\u2581Joe": 1543,
  "\u2581pick": 1544,
  "\u2581Niye": 1545,
  "\u2581olduk\u00e7a": 1546,
  "\u2581Umar\u0131m": 1547,
  "\u2581H": 1548,
  "\u2581Neler": 1549,
  "\u2581miss": 1550,
  "\u2581sonunda": 1551,
  "\u2581s\u00f6ylemek": 1552,
  "\u2581d\u00f6rt": 1553,
  "ck": 1554,
  "\u2581araba": 1555,
  "\u2581land": 1556,
  "\u2581\u2013": 1557,
  "\u2581follow": 1558,
  "L": 1559,
  "\u2581Yehova": 1560,
  "\u2581gitmek": 1561,
  "\u2581sign": 1562,
  "\u2581known": 1563,
  "\u2581Two": 1564,
  "\u2581everybody": 1565,
  "\u2581buldum": 1566,
  "\u2581sick": 1567,
  "\u2581lose": 1568,
  "\u2581hour": 1569,
  "\u2581edecek": 1570,
  "sunuz": 1571,
  "\u2581\u00dc\u00e7": 1572,
  "\u2581sense": 1573,
  "\u2581Yoksa": 1574,
  "\u2581Fuck": 1575,
  "ga": 1576,
  "\u2581Onlara": 1577,
  "\u2581d\u00fc\u015f\u00fcn": 1578,
  "\u2581cool": 1579,
  "\u2581olmayan": 1580,
  "tik": 1581,
  "\u2581possible": 1582,
  "\u2581N": 1583,
  "\u2581dog": 1584,
  "\u2581dersin": 1585,
  "\u2581ones": 1586,
  "\u2581May": 1587,
  "\u2581Nice": 1588,
  "\u2581g\u00fc\u00e7l\u00fc": 1589,
  "\u2581zamanda": 1590,
  "\u2581gelip": 1591,
  "lo": 1592,
  "\u2581merak": 1593,
  "Evet": 1594,
  "\u2581s": 1595,
  "\u2581milyon": 1596,
  "\u2581d\u00fc\u015f\u00fcn\u00fcyorum": 1597,
  "\u2581return": 1598,
  "\u2581h\u0131zl\u0131": 1599,
  "\u2581evil": 1600,
  "\u2581lanet": 1601,
  "\u2581etmeye": 1602,
  "\u2581Bizim": 1603,
  "\u2581Ger\u00e7ek": 1604,
  "ik": 1605,
  "\u2581bitch": 1606,
  "\u2581yeter": 1607,
  "\u2581dinner": 1608,
  "\u2581Eve": 1609,
  "\u2581hasta": 1610,
  "maya": 1611,
  "\u2581words": 1612,
  "\u2581Wow": 1613,
  "\u2581feeling": 1614,
  "\u2581boys": 1615,
  "ch": 1616,
  "\u2581funny": 1617,
  "\u2581kald\u0131": 1618,
  "\u2581Hala": 1619,
  "\u2581nor": 1620,
  "\u2581d\u00fc\u015f\u00fcnd\u00fcm": 1621,
  "\u2581Ayn\u0131": 1622,
  "\u2581meeting": 1623,
  "\u2581fikir": 1624,
  "abilir": 1625,
  "\u2581Put": 1626,
  "\u2581seems": 1627,
  "d\u0131\u011f\u0131n\u0131": 1628,
  "cause": 1629,
  "\u2581indeed": 1630,
  "\u2581unto": 1631,
  "sak": 1632,
  "\u2581uygun": 1633,
  "\u2581control": 1634,
  "\u258150": 1635,
  "\u2581bak\u0131n": 1636,
  "\u2581small": 1637,
  "\u2581leaving": 1638,
  "\u2581Sizin": 1639,
  "\u2581\u00e7al\u0131\u015f\u0131yor": 1640,
  "\u2581adam\u0131n": 1641,
  "\u2581D\u00fcnya": 1642,
  "ah": 1643,
  "luk": 1644,
  "\u2581bilir": 1645,
  "\u2581thanks": 1646,
  "\u2581arada": 1647,
  "\u2581sex": 1648,
  "cu": 1649,
  "tu": 1650,
  "\u2581tut": 1651,
  "\u2581Hold": 1652,
  "\u2581ad\u0131m": 1653,
  "\u2581turned": 1654,
  "\u2581Mo": 1655,
  "\u2581olaca\u011f\u0131n\u0131": 1656,
  "\u2581Lo": 1657,
  "\u2581herhangi": 1658,
  "\u2581Does": 1659,
  "\u2581dolu": 1660,
  "\u2581Got": 1661,
  "\u2581asking": 1662,
  "\u2581ate\u015f": 1663,
  "lerinde": 1664,
  "\u25818": 1665,
  "ist": 1666,
  "aca\u011f\u0131z": 1667,
  "\u2581ald\u0131": 1668,
  "\u2581hair": 1669,
  "\u2581anyway": 1670,
  "\u2581except": 1671,
  "\u2581company": 1672,
  "\u2581olmadan": 1673,
  "der": 1674,
  "\u2581ihtiyac\u0131": 1675,
  "\u2581D\u00fcn": 1676,
  "\u2581lie": 1677,
  "zi": 1678,
  "dik": 1679,
  "\u2581olaca\u011f\u0131m": 1680,
  "\u2581damn": 1681,
  "\u2581Ta": 1682,
  "iyor": 1683,
  "\u2581Di": 1684,
  "\u2581birisi": 1685,
  "U": 1686,
  "\u2581Max": 1687,
  "\u2581terk": 1688,
  "\u2581\u00e7al\u0131\u015f\u0131yorum": 1689,
  "al\u0131m": 1690,
  "\u2581ad\u0131": 1691,
  "\u2581Ar": 1692,
  "\u2581happens": 1693,
  "\u2581seem": 1694,
  "\u2581ge\u00e7en": 1695,
  "\u2581Mary": 1696,
  "\u2581kesinlikle": 1697,
  "\u2581gerekti\u011fini": 1698,
  "\u2581hava": 1699,
  "l\u0131\u011f\u0131": 1700,
  "\u2581touch": 1701,
  "ol": 1702,
  "d\u0131n": 1703,
  "\u2581bunlar\u0131": 1704,
  "\u2581kere": 1705,
  "\u2581Everything": 1706,
  "\u2581drive": 1707,
  "\u2581sort": 1708,
  "\u2581el": 1709,
  "\u2581duydum": 1710,
  "\u2581Very": 1711,
  "\u2581Yapma": 1712,
  "co": 1713,
  "\u2581yapt\u0131\u011f\u0131n\u0131": 1714,
  "\u2581vermek": 1715,
  "yken": 1716,
  "\u2581Hem": 1717,
  "\u2581Keep": 1718,
  "\u2581system": 1719,
  "\u2581g\u00f6rd\u00fcn": 1720,
  "\u2581special": 1721,
  "\u2581hayatta": 1722,
  "\u2581kat": 1723,
  "dum": 1724,
  "\u2581K\u00fc\u00e7\u00fck": 1725,
  "\u2581\u00e7\u0131k": 1726,
  "\u2581Vay": 1727,
  "\u2581People": 1728,
  "\u2581sanm\u0131yorum": 1729,
  "\u2581K\u0131z": 1730,
  "\u2581d\u00f6n": 1731,
  "\u2581i\u00e7ine": 1732,
  "\u2581ten": 1733,
  "lama": 1734,
  "\u2581rahat": 1735,
  "\u2581black": 1736,
  "\u2581bitti": 1737,
  "\u2581sound": 1738,
  "\u2581million": 1739,
  "\u2581Bye": 1740,
  "\u2581Kahretsin": 1741,
  "We": 1742,
  "\u2581fast": 1743,
  "\u2581lady": 1744,
  "\u2581future": 1745,
  "\u2581olurdu": 1746,
  "\u2581g\u00fcven": 1747,
  "\u2581murder": 1748,
  "\u2581shouldn": 1749,
  "What": 1750,
  "\u2581dear": 1751,
  "\u2581verin": 1752,
  "yan": 1753,
  "bir": 1754,
  "\u2581Could": 1755,
  "\u2581olmayacak": 1756,
  "able": 1757,
  "\u2581kullan": 1758,
  "\u2581Birka\u00e7": 1759,
  "of": 1760,
  "\u2581evde": 1761,
  "\".": 1762,
  "\u2581olup": 1763,
  "\u2581Bo": 1764,
  "\u2581scared": 1765,
  "\u2581THE": 1766,
  "\u2581k\u0131sa": 1767,
  "\u2581Henry": 1768,
  "\u2581information": 1769,
  "\u2581_": 1770,
  "sel": 1771,
  "\u2581learn": 1772,
  "\u2581\u00e7ocu\u011fu": 1773,
  "\u2581weeks": 1774,
  "\u2581themselves": 1775,
  "\u2581figure": 1776,
  "\u2581Sence": 1777,
  "\u2581nereye": 1778,
  "\u2581works": 1779,
  "\u2581Mm": 1780,
  "\u2581R": 1781,
  "pe": 1782,
  "\"?": 1783,
  "\u2581perfect": 1784,
  "\u2581less": 1785,
  "\u2581Help": 1786,
  "\u2581eminim": 1787,
  "\u2581ta": 1788,
  "\u2581kesin": 1789,
  "\u2581g\u00f6r\u00fc\u015f\u00fcr\u00fcz": 1790,
  "\u2581g\u00f6ster": 1791,
  "\u2581glad": 1792,
  "\u2581100": 1793,
  "\u2581From": 1794,
  "\u2581Fine": 1795,
  ".\u201d": 1796,
  "\u2581dair": 1797,
  "ze": 1798,
  "\u2581gizli": 1799,
  "\u2581Bundan": 1800,
  "\u2581bo\u015f": 1801,
  "\u2581yeri": 1802,
  "\u2581par\u00e7a": 1803,
  "\u2581serious": 1804,
  "mo": 1805,
  "*": 1806,
  "\u2581&": 1807,
  "\u2581date": 1808,
  "\u2581verdim": 1809,
  "\u2581anlat": 1810,
  "\u2581diyor": 1811,
  "\u2581bar": 1812,
  "Ne": 1813,
  "\u2581oyun": 1814,
  "imi": 1815,
  "\u2581shoot": 1816,
  "\u2581ele": 1817,
  "\u2581Was": 1818,
  "\u2581questions": 1819,
  "\u2581olmad\u0131": 1820,
  "\u2581Tekrar": 1821,
  "sem": 1822,
  "\u2581Only": 1823,
  "\u25819": 1824,
  "\u2581sahibi": 1825,
  "\u2581\u00d6yleyse": 1826,
  "\u2581kendimi": 1827,
  "\u2581Babam": 1828,
  "vi": 1829,
  "\u2581garip": 1830,
  "ry": 1831,
  "\u2581Eski": 1832,
  "\u2581g\u00fc\u00e7": 1833,
  "\u2581hayat": 1834,
  "\u2581yapmaya": 1835,
  "\u2581worked": 1836,
  "\u2581risk": 1837,
  "\u2581ge\u00e7ti": 1838,
  "\u2581San": 1839,
  "\u2581anybody": 1840,
  "unu": 1841,
  "\u2581istedi": 1842,
  "you": 1843,
  "ster": 1844,
  "\u2581Something": 1845,
  "\u2581silah": 1846,
  "as": 1847,
  "\u2581Alo": 1848,
  "\u2581Biliyor": 1849,
  "\u2581felt": 1850,
  "\u2581kendine": 1851,
  "\u2581yapaca\u011f\u0131m": 1852,
  "\u2581ana": 1853,
  "\u2581fault": 1854,
  "\u2581win": 1855,
  "sinde": 1856,
  "\u2581bakma": 1857,
  "\u2581yaz": 1858,
  "\u2581Am": 1859,
  "V": 1860,
  "\u2581geldin": 1861,
  "\u2581aile": 1862,
  "\u2581hospital": 1863,
  "\u2581Gidelim": 1864,
  "\u2581su\u00e7": 1865,
  "\u2581longer": 1866,
  "\u00f6": 1867,
  "\u2581J": 1868,
  "\u2581gidiyorum": 1869,
  "\u2581p": 1870,
  "\u2581luck": 1871,
  "\u2581message": 1872,
  "\u2581till": 1873,
  "\u2581Never": 1874,
  "ting": 1875,
  "\u2581air": 1876,
  "\u2581Alex": 1877,
  "\u2581%": 1878,
  "\u2581calling": 1879,
  "\u2581playing": 1880,
  "\u2581write": 1881,
  "\u2581bence": 1882,
  "\u2581Le": 1883,
  "\u2581hangi": 1884,
  "\u2581i\u015fler": 1885,
  "\u2581iman": 1886,
  "\u2581surely": 1887,
  "\u2581law": 1888,
  "\u2581seven": 1889,
  "ling": 1890,
  "\u2581evidence": 1891,
  "\u2581needed": 1892,
  "\u2581alt\u0131": 1893,
  "\u2581secret": 1894,
  "Allah": 1895,
  "\u2581honey": 1896,
  "\u2581ba\u015f": 1897,
  "nizi": 1898,
  "\u2581ba\u011fl\u0131": 1899,
  "\u2581clean": 1900,
  "\u2581b": 1901,
  "\u2581white": 1902,
  "erek": 1903,
  "\u2581m\u0131s\u0131n\u0131z": 1904,
  "\u2581yar\u0131n": 1905,
  "\u2581choice": 1906,
  "li\u011fi": 1907,
  "\u2581Captain": 1908,
  "ak": 1909,
  "\u2581evlat": 1910,
  "\u2581eye": 1911,
  "\u2581state": 1912,
  "\u2581arkada\u015f\u0131m": 1913,
  "\u2581buras\u0131": 1914,
  "\u2581parti": 1915,
  "\u2581Make": 1916,
  "ece\u011fim": 1917,
  "\u2581Y": 1918,
  "\u2581diyorsun": 1919,
  "\u2581doktor": 1920,
  "\u2581Para": 1921,
  "\u2581\u0130": 1922,
  "\u0131yorum": 1923,
  "m\u0131z\u0131": 1924,
  "sek": 1925,
  "\u2581herif": 1926,
  "\u2581adam\u0131m": 1927,
  "\u2581Az": 1928,
  "\u2581cold": 1929,
  "\u2581created": 1930,
  "\u2581hissediyorum": 1931,
  "\u2581straight": 1932,
  "\u2581sefer": 1933,
  "\u2581konu\u015fma": 1934,
  "\u2581iyiyim": 1935,
  "\u2581Na": 1936,
  "\u2581looked": 1937,
  "\u2581hata": 1938,
  "\u2581during": 1939,
  "\u2581Ka\u00e7": 1940,
  "\u2581takes": 1941,
  "\u2581changed": 1942,
  "W": 1943,
  "\u2581Ba": 1944,
  "\u2581certainly": 1945,
  "\u2581cause": 1946,
  "\u2581feet": 1947,
  "\u2581s\u00f6yleme": 1948,
  "\u2581Di\u011fer": 1949,
  "\u2581kendilerine": 1950,
  "\u2581government": 1951,
  "\u2581kes": 1952,
  "\u2581yapt\u0131\u011f\u0131": 1953,
  "\u2581ifade": 1954,
  "\u2581seeing": 1955,
  "ver": 1956,
  "\u2581Ho": 1957,
  "\u2581fall": 1958,
  "\u258111": 1959,
  "\u2581\u0130\u00e7eri": 1960,
  "\u2581san\u0131yordum": 1961,
  "\u2581near": 1962,
  "\u2581Annem": 1963,
  "\u258125": 1964,
  "\u2581geceler": 1965,
  "\u2581sun": 1966,
  "\u2581moving": 1967,
  "\u2581Any": 1968,
  "\u2581Damn": 1969,
  "ey": 1970,
  "\u2581rather": 1971,
  "\u2581weird": 1972,
  "ad": 1973,
  "\u2581Benden": 1974,
  "\u2581bebek": 1975,
  "\u2581ortak": 1976,
  "\u2581olma": 1977,
  "\u2581veriyorum": 1978,
  "\u2581Ray": 1979,
  "ation": 1980,
  "\u2581dolay\u0131": 1981,
  "\u2581early": 1982,
  "\u2581yapar": 1983,
  "inde": 1984,
  "\u2581god": 1985,
  "\u2581ship": 1986,
  "\u0130": 1987,
  "\u258116": 1988,
  "\u00fcr": 1989,
  "\u2581Mi": 1990,
  "\u2581Danny": 1991,
  "\u2581loved": 1992,
  "\u2581insanlar\u0131": 1993,
  "\u2581giving": 1994,
  "\u2581\u00d6nemli": 1995,
  "\u2581Hangi": 1996,
  "\u2581\u00f6n\u00fcnde": 1997,
  "\u2581olamaz": 1998,
  "\u2581Shit": 1999,
  "gi": 2000,
  "\u2581hizmet": 2001,
  "mas\u0131": 2002,
  "\u2581yapacak": 2003,
  "mal\u0131s\u0131n": 2004,
  "j": 2005,
  "\u2581ALLAH": 2006,
  "\u2581picture": 2007,
  "\u2581thou": 2008,
  "\u011f": 2009,
  "\u2581K\u00f6t\u00fc": 2010,
  "\u258114": 2011,
  "\u2581Uzun": 2012,
  "\u2581telefon": 2013,
  "\u2581gidiyorsun": 2014,
  "\u2581olay": 2015,
  "\u2581ikinci": 2016,
  "\u2581k\u0131z\u0131": 2017,
  "\u2581happening": 2018,
  "\u2581dek": 2019,
  "\u2581First": 2020,
  "\u2581report": 2021,
  "\u2581security": 2022,
  "ner": 2023,
  "ho": 2024,
  "\u2581niye": 2025,
  "\u2581ediyorsun": 2026,
  "\u2581Da": 2027,
  "\u2581General": 2028,
  "\u2581shut": 2029,
  "\u2581varm\u0131\u015f": 2030,
  "\u2581dream": 2031,
  "\u2581spend": 2032,
  "\u0131na": 2033,
  "\u2581Se": 2034,
  "\u2581Li": 2035,
  "d\u0131k": 2036,
  "\u2581protect": 2037,
  "\u2581s\u0131k": 2038,
  "\u2581piece": 2039,
  "\u2581Onlar\u0131n": 2040,
  "\u2581gir": 2041,
  "\u2581catch": 2042,
  "\u2581sanki": 2043,
  "\u258140": 2044,
  "\u2581koy": 2045,
  "\u2581\u00d6nce": 2046,
  "\u2581Nick": 2047,
  "\u2581o\u011flum": 2048,
  "\u2581Father": 2049,
  "\u2581Jim": 2050,
  "\u2581weren": 2051,
  "\u2581yapan": 2052,
  "\u2581ihtiyac\u0131m\u0131z": 2053,
  "\u2581explain": 2054,
  "\u2581s\u00fcrekli": 2055,
  "\u2581Stay": 2056,
  "\u2581Ed": 2057,
  "\u2581arkada\u015f": 2058,
  "\u2581bir\u00e7ok": 2059,
  "\u2581deli": 2060,
  "men": 2061,
  "\u2581Senden": 2062,
  "\u2581Pek": 2063,
  "\u2581list": 2064,
  "\u2581can\u0131m": 2065,
  "\u2581bi": 2066,
  "\u2581somewhere": 2067,
  "\u2581miydi": 2068,
  "\u2581san\u0131yorsun": 2069,
  "\u2581B\u00f6ylece": 2070,
  "\u2581Bob": 2071,
  "\u2581building": 2072,
  "\u2581birinin": 2073,
  "\u258113": 2074,
  "\u2581ihtiyac\u0131n": 2075,
  "\u258117": 2076,
  "\u2581worth": 2077,
  "\u2581video": 2078,
  "(": 2079,
  "\u2581tahmin": 2080,
  "\u2581Paris": 2081,
  "\u2581edip": 2082,
  "\u2581istedi\u011fini": 2083,
  "\u2581single": 2084,
  "\u2581Jane": 2085,
  "\u2581St": 2086,
  "\u2581Sarah": 2087,
  "\u2581finally": 2088,
  "\u2581Mark": 2089,
  "\u2581f": 2090,
  "\u2581\u00e7abuk": 2091,
  "\u2581m\u00fcmk\u00fcn": 2092,
  "\u2581gelmi\u015f": 2093,
  "\u2581\u0130nsanlar": 2094,
  "\u2581Dan": 2095,
  "\u2581ciddi": 2096,
  "\u2581TV": 2097,
  "\u00e7i": 2098,
  "\u2581onlardan": 2099,
  "Ben": 2100,
  "\u2581ya\u015f\u0131nda": 2101,
  "\u2581dava": 2102,
  "\u2581pain": 2103,
  "ja": 2104,
  "\u2581kidding": 2105,
  "\u2581strong": 2106,
  "\u2581bayan": 2107,
  "\u2581TO": 2108,
  "\u2581Yo": 2109,
  "\u2581al\u0131p": 2110,
  "\u2581sene": 2111,
  "\u2581vakit": 2112,
  "ran": 2113,
  "\u2581missing": 2114,
  "\u2581sevindim": 2115,
  "\u258124": 2116,
  "\u2581ra\u011fmen": 2117,
  "\u2581kept": 2118,
  "\u2581d\u00fc\u015f\u00fcn\u00fcyor": 2119,
  "\u2581sweet": 2120,
  "\u2581\u00e7ek": 2121,
  "\u2581peace": 2122,
  "\u2581boss": 2123,
  "\u2581faith": 2124,
  "2": 2125,
  "ut": 2126,
  "\u2581Devam": 2127,
  "\u2581bilmek": 2128,
  "\u2581Jimmy": 2129,
  "\u2581Hmm": 2130,
  "\u2581yapaca\u011f\u0131z": 2131,
  "\u2581Ver": 2132,
  "\u2581par\u00e7as\u0131": 2133,
  "\u2581tuhaf": 2134,
  "mu": 2135,
  "\u2581Bill": 2136,
  "bo": 2137,
  "\u2581al\u0131n": 2138,
  "\u2581act": 2139,
  "mal\u0131y\u0131z": 2140,
  "\u2581i\u00e7ki": 2141,
  "\u2581Polis": 2142,
  "ion": 2143,
  "\u2581Ge\u00e7en": 2144,
  "\u2581Jo": 2145,
  "\u2581music": 2146,
  "\u2581anlama": 2147,
  "ment": 2148,
  "\u2581worse": 2149,
  "\u2581Amerika": 2150,
  "\u2581birine": 2151,
  "\u2581Pardon": 2152,
  "\u2581month": 2153,
  "\u2581lead": 2154,
  "\u2581biliyoruz": 2155,
  "\u2581S\u00f6yle": 2156,
  "ber": 2157,
  "\u2581Whatever": 2158,
  "\u2581Haz\u0131r": 2159,
  "\u2581soul": 2160,
  "\u2581Every": 2161,
  "\u2581m\u00fckemmel": 2162,
  "\u2581yap\u0131yorum": 2163,
  "\u2581red": 2164,
  "\u2581co": 2165,
  "\u2581James": 2166,
  "\u2581bebe\u011fim": 2167,
  "\u2581Sanki": 2168,
  "\u2581coffee": 2169,
  "\u2581FBI": 2170,
  "kar": 2171,
  "\u2581hayat\u0131m": 2172,
  "\u2581Eminim": 2173,
  "ek": 2174,
  "\u2581Actually": 2175,
  "\u2581pass": 2176,
  "\u2581de\u011fer": 2177,
  "y\u0131z": 2178,
  "\u2581mesaj": 2179,
  "\u2581gelin": 2180,
  "\u2581dediler": 2181,
  "\u2581\u00f6l\u00fc": 2182,
  "\u2581rahats\u0131z": 2183,
  "\u2581neredeyse": 2184,
  "\u2581a\u015fa\u011f\u0131": 2185,
  "\u2581V": 2186,
  "\u2581art": 2187,
  "land": 2188,
  "\u2581karde\u015fim": 2189,
  "\u00e7a": 2190,
  "\u2581sensin": 2191,
  "\u2581\u00f6l\u00fcm": 2192,
  "lar\u0131m": 2193,
  "\u2581ya\u015fl\u0131": 2194,
  "\u2581G\u00fcnayd\u0131n": 2195,
  "3": 2196,
  "\u2581yola": 2197,
  "\u2581\u015fark\u0131": 2198,
  "\u2581Siktir": 2199,
  "\u2581step": 2200,
  "\u2581Bible": 2201,
  "\u2581Bazen": 2202,
  "\u2581Christ": 2203,
  "\u2581temiz": 2204,
  "\u2581\u0130\u015f": 2205,
  "ness": 2206,
  "\u2581y": 2207,
  "\u2581neyse": 2208,
  "\u2581entire": 2209,
  "\u2581Bar": 2210,
  "\u2581using": 2211,
  "\u2581bulmak": 2212,
  "\u2581Biri": 2213,
  "\u2581kimin": 2214,
  "\u2581olsayd\u0131": 2215,
  "ji": 2216,
  "\u2581Mar": 2217,
  "\u2581elbette": 2218,
  "Cause": 2219,
  "sh": 2220,
  "\u2581Remember": 2221,
  "\u2581gidiyoruz": 2222,
  "\u2581meant": 2223,
  "\u2581Tabi": 2224,
  "\u2581bul": 2225,
  "d\u00fcr": 2226,
  "1": 2227,
  "\u2581benziyor": 2228,
  "\u2581poor": 2229,
  "\u2581Emin": 2230,
  "5": 2231,
  "\u2581park": 2232,
  "\u2581bende": 2233,
  "\u2581ride": 2234,
  "\u2581Shut": 2235,
  "\u2581belli": 2236,
  "\u2581age": 2237,
  "\u2581group": 2238,
  "\u2581s\u0131ra": 2239,
  "\u2581sometimes": 2240,
  "\u2581tatl\u0131": 2241,
  "\u2581kald\u0131r": 2242,
  "\u2581Daniel": 2243,
  "\u2581class": 2244,
  "\u2581Tony": 2245,
  "\u2581situation": 2246,
  "\u2581m\u0131yd\u0131": 2247,
  "\u2581dans": 2248,
  "\u2581s\u00f6yledin": 2249,
  "\u2581k": 2250,
  "\u2581expect": 2251,
  "\u2581memnun": 2252,
  "\u2581road": 2253,
  "\u2581babam": 2254,
  "\u2581Bak\u0131n": 2255,
  "\u2581derece": 2256,
  "\u2581verme": 2257,
  "\u2581evening": 2258,
  "\u2581lying": 2259,
  "\u2581Kendini": 2260,
  "\u2581\u00e7al\u0131\u015fma": 2261,
  "\u2581none": 2262,
  "\u2581sak\u0131n": 2263,
  "\u2581komik": 2264,
  "\u2581mad": 2265,
  "\u2581Saat": 2266,
  "\u2581wedding": 2267,
  "\u2581Baz\u0131": 2268,
  "\u2581Nobody": 2269,
  "\u2581sounds": 2270,
  "ff": 2271,
  "\u2581ettin": 2272,
  "\u2581dance": 2273,
  "\u2581Ra": 2274,
  "\u2581decided": 2275,
  "fi": 2276,
  "\u2581King": 2277,
  "\u2581attack": 2278,
  "\u2581x": 2279,
  "yse": 2280,
  "\u2581lucky": 2281,
  "\u2581Whoa": 2282,
  "\u2581swear": 2283,
  "\u2581\u015fans": 2284,
  "\u2581numara": 2285,
  "\u2581Hep": 2286,
  "00": 2287,
  "\u2581Te": 2288,
  "meye": 2289,
  "by": 2290,
  "\u2581gerekir": 2291,
  "\u2581sebebi": 2292,
  "\u2581konu": 2293,
  "\u2581heavens": 2294,
  "\u2581Someone": 2295,
  "\u2581iyilik": 2296,
  "\u2581nobody": 2297,
  "\u2581handle": 2298,
  "\u2581yeterli": 2299,
  "\u2581knowledge": 2300,
  "\u2581mouth": 2301,
  "\u2581dua": 2302,
  "\u2581Isn": 2303,
  "\u2581key": 2304,
  "\u2581Ka": 2305,
  "pa": 2306,
  "tim": 2307,
  "\u2581yemin": 2308,
  "\u2581olmas\u0131n\u0131": 2309,
  "\u2581hen\u00fcz": 2310,
  "\u2581kitap": 2311,
  "\u2581Ki": 2312,
  "\u2581isterim": 2313,
  "\u2581mistake": 2314,
  "\u2581d\u00fcn": 2315,
  "\u2581worried": 2316,
  "...\"": 2317,
  "\u2581bag": 2318,
  "\u2581Call": 2319,
  "\u2581hang": 2320,
  "\u2581tercih": 2321,
  "\u2581olanlar": 2322,
  "\u2581voice": 2323,
  "\u2581Asla": 2324,
  "lar\u0131m\u0131z": 2325,
  "\u2581ya\u015fam": 2326,
  "\u2581Ana": 2327,
  "\u2581\u015f\u00fcphe": 2328,
  "\u2581S\u00f6z": 2329,
  "J": 2330,
  "\u2581d": 2331,
  "\u2581\u00e7al\u0131\u015f": 2332,
  "\u2581\u00e7o\u011fu": 2333,
  "ebilir": 2334,
  "acaks\u0131n": 2335,
  "\u2581\u00c7ocuklar": 2336,
  "\u2581punishment": 2337,
  "\u2581y\u0131ld\u0131r": 2338,
  "\u2581davet": 2339,
  "\u2581broke": 2340,
  "\u2581Ay": 2341,
  "\u2581welcome": 2342,
  "\u2581W": 2343,
  "\u2581olmaya": 2344,
  "len": 2345,
  "d\u0131\u011f\u0131": 2346,
  "\u2581share": 2347,
  "\u2581short": 2348,
  "\u2581About": 2349,
  "\u2581korkun\u00e7": 2350,
  "\u2581a\u011f\u0131r": 2351,
  "\u2581forever": 2352,
  "\u2581signs": 2353,
  "\u2581c": 2354,
  "\u2581pull": 2355,
  "\u2581beat": 2356,
  "\u2581yeme\u011fi": 2357,
  "\u2581Ey": 2358,
  "Bir": 2359,
  "m\u0131\u015ft\u0131": 2360,
  "\u2581watching": 2361,
  "\u2581neydi": 2362,
  "aca\u011f\u0131n\u0131": 2363,
  "\u2581\u00e7eneni": 2364,
  "\u2581support": 2365,
  "\u2581Move": 2366,
  "\u2581Most": 2367,
  "\u2581present": 2368,
  "est": 2369,
  "\u2581street": 2370,
  "\u2581t": 2371,
  "\u2581g\u00f6t\u00fcr": 2372,
  "lar\u0131m\u0131": 2373,
  "\u2581teklif": 2374,
  "\u2581space": 2375,
  "seniz": 2376,
  "\u2581alan": 2377,
  "\u2581Dikkat": 2378,
  "\u2581istersen": 2379,
  "It": 2380,
  "fe": 2381,
  "\u2581certain": 2382,
  "lin": 2383,
  "\u2581throw": 2384,
  "ity": 2385,
  "\u2581yara": 2386,
  "\u2581oh": 2387,
  "\u2581zamand\u0131r": 2388,
  "\u2581bilmiyor": 2389,
  "\u2581verir": 2390,
  "so": 2391,
  "\u2581within": 2392,
  "\u2581konu\u015f": 2393,
  "\u2581almaya": 2394,
  "\u2581\u00fcst\u00fcne": 2395,
  "\u2581durumu": 2396,
  "\u2581Buradan": 2397,
  "\u2581completely": 2398,
  "\u2581born": 2399,
  "\u2581sebep": 2400,
  "\u2581Leave": 2401,
  "\u2581defa": 2402,
  "\u2581edece\u011fim": 2403,
  "os": 2404,
  "\u2581Lee": 2405,
  "\u2581Aynen": 2406,
  "\u2581ran": 2407,
  "\u2581Selam": 2408,
  "\u2581became": 2409,
  "mizi": 2410,
  "\u2581Kitap": 2411,
  "\u2581amazing": 2412,
  "\u2581Co": 2413,
  "\u2581ground": 2414,
  "\u2581caught": 2415,
  "\u2581Ondan": 2416,
  "\u2581drop": 2417,
  "\u2581history": 2418,
  "\u2581talked": 2419,
  "per": 2420,
  "\u2581problems": 2421,
  "\u2581program": 2422,
  "ian": 2423,
  "\u2581Merak": 2424,
  "\u2581crime": 2425,
  "\u2581wonder": 2426,
  "\u2581offer": 2427,
  "\u2581diyorum": 2428,
  "\u2581movie": 2429,
  "\u2581Ba\u015fkan": 2430,
  "\u2581prison": 2431,
  "\u2581gider": 2432,
  "m\u0131\u015ft\u0131m": 2433,
  "\u2581Zaten": 2434,
  "\u2581oda": 2435,
  "\u2581brain": 2436,
  "\u2581American": 2437,
  "\u2581unutma": 2438,
  "\u2581bulunan": 2439,
  "\u2581Kara": 2440,
  "\u2581etmi\u015f": 2441,
  "\u2581terrible": 2442,
  "\u2581personal": 2443,
  "\u2581table": 2444,
  "\u2581basit": 2445,
  "\u2581kapat": 2446,
  "\u2581thee": 2447,
  "\u2581public": 2448,
  "\u2581busy": 2449,
  "\u2581Con": 2450,
  "\u2581Everyone": 2451,
  "gu": 2452,
  "\u2581cover": 2453,
  "\u2581dark": 2454,
  "\u2581Steve": 2455,
  "\u2581arama": 2456,
  "\u2581oldu\u011fum": 2457,
  "\u2581sonraki": 2458,
  "ard": 2459,
  "No": 2460,
  "\u2581area": 2461,
  "\u2581canl\u0131": 2462,
  "\u2581saved": 2463,
  "sinden": 2464,
  "\u2581Should": 2465,
  "\u0131yorsun": 2466,
  "\u2581Muhtemelen": 2467,
  "\u2581alabilir": 2468,
  "\u2581Red": 2469,
  "\u2581across": 2470,
  "\u2581\u015feyden": 2471,
  "\u2581Book": 2472,
  "\u2581Ri": 2473,
  "\u2581biliyordum": 2474,
  "\u2581millet": 2475,
  "fa": 2476,
  "\u2581kalan": 2477,
  "\u2581Ko": 2478,
  "\u2581yerinde": 2479,
  "\u2581Three": 2480,
  "\u2581birthday": 2481,
  "\u2581Looks": 2482,
  "ay\u0131m": 2483,
  "\u2581box": 2484,
  "he": 2485,
  "id": 2486,
  "\u0131m\u0131": 2487,
  "\u2581sonu": 2488,
  "let": 2489,
  "\u2581middle": 2490,
  "\u2581zamanlar": 2491,
  "\u2581Indeed": 2492,
  "\u2581doubt": 2493,
  "tur": 2494,
  "\u2581b\u00f6ylece": 2495,
  "\u2581Kapa": 2496,
  "\u2581Sa": 2497,
  "\u2581beyaz": 2498,
  "\u2581sat": 2499,
  "ana": 2500,
  "\u2581sell": 2501,
  "\u2581ses": 2502,
  "\u2581Affedersiniz": 2503,
  "\u2581bulduk": 2504,
  "\u2581yeterince": 2505,
  "\u00e9": 2506,
  "\u2581De\u011fil": 2507,
  "\u2581al\u0131r": 2508,
  "\u2581wonderful": 2509,
  "\u2581seks": 2510,
  "\u2581Avrupa": 2511,
  "di\u011fini": 2512,
  "\u2581inan": 2513,
  "\u2581ad\u0131na": 2514,
  "\u2581tired": 2515,
  "\u2581mal": 2516,
  "\u2581totally": 2517,
  "\u2581\u00fcst\u00fcnde": 2518,
  "\u2581sayg\u0131": 2519,
  "\u2581President": 2520,
  "\u2581record": 2521,
  "\u2581bas": 2522,
  "ty": 2523,
  "\u2581teslim": 2524,
  "Z": 2525,
  "dy": 2526,
  "\u2581ald\u0131n": 2527,
  "\u2581Musa": 2528,
  "\u2581paid": 2529,
  "\u2581insanlara": 2530,
  "\u2581X": 2531,
  "elim": 2532,
  "\u2581Think": 2533,
  "\u2581yaln\u0131zca": 2534,
  "\u2581Noel": 2535,
  "\u2581killing": 2536,
  "\u2581wear": 2537,
  "\u2581oldu\u011fundan": 2538,
  "\u2581service": 2539,
  "\u2581yapm\u0131\u015f": 2540,
  "\u2581erken": 2541,
  "\u2581yedi": 2542,
  "\u2581careful": 2543,
  "\u2581position": 2544,
  "\u2581respect": 2545,
  "\u2581inanam\u0131yorum": 2546,
  "\u2581sende": 2547,
  "\u2581Er": 2548,
  "\u2581g\u00fcvenlik": 2549,
  "\u2581sor": 2550,
  "\u2581sea": 2551,
  "\u2581isim": 2552,
  "di\u011fi": 2553,
  "\u2581s\u0131cak": 2554,
  "van": 2555,
  "\u2581king": 2556,
  "\u2581floor": 2557,
  "\u2581A\u00e7": 2558,
  "\u2581H\u00e2l\u00e2": 2559,
  "\u2581forgive": 2560,
  "\u2581Kan": 2561,
  "\u2581court": 2562,
  "\u2581simple": 2563,
  "\u2581anywhere": 2564,
  "\u2581berbat": 2565,
  "yiz": 2566,
  "\u2581Martin": 2567,
  "\u2581Oraya": 2568,
  "\u2581elde": 2569,
  "\u2581yan": 2570,
  "\u2581hale": 2571,
  "iyorum": 2572,
  "mda": 2573,
  "\u2581s\u00f6yl\u00fcyorum": 2574,
  "one": 2575,
  "\u2581Z": 2576,
  "\u2581olacaks\u0131n": 2577,
  "imiz": 2578,
  "\u2581Richard": 2579,
  "miyor": 2580,
  "\u2581Park": 2581,
  "\u2581hikaye": 2582,
  "\u2581Tommy": 2583,
  "\u2581hide": 2584,
  "\u2581Harry": 2585,
  "\u2581uyu\u015fturucu": 2586,
  "\u2581bekliyor": 2587,
  "\u2581g\u00f6r\u00fcn\u00fcyorsun": 2588,
  "\u2581Mac": 2589,
  "\u2581per": 2590,
  "\u2581yesterday": 2591,
  "\u2581Robert": 2592,
  "\u2581whose": 2593,
  "\u2581force": 2594,
  "\u2581Jake": 2595,
  "ymi\u015f": 2596,
  "\u2581kendisi": 2597,
  "\u2581ring": 2598,
  "\u2581dedin": 2599,
  "\u2581tak\u0131m": 2600,
  "\u2581instead": 2601,
  "\u2581Yap": 2602,
  "\u2581\u00f6nceki": 2603,
  "\u2581oradan": 2604,
  "\u2581Lu": 2605,
  "\u2581bilirsin": 2606,
  "\u2581koca": 2607,
  "\u2581\u00e7al\u0131\u015fan": 2608,
  "\u2581ettik": 2609,
  "\u2581anla\u015fma": 2610,
  "\u2581join": 2611,
  "\u2581Daddy": 2612,
  "\u2581\u00fcst": 2613,
  "\u2581hearts": 2614,
  "\u2581Everybody": 2615,
  "\u2581partner": 2616,
  "\u2581Christmas": 2617,
  "\u2581Ryan": 2618,
  "\u2581istemiyor": 2619,
  "\u0131nda": 2620,
  "ev": 2621,
  "sal": 2622,
  "\u2581cinayet": 2623,
  "\u2581marriage": 2624,
  "\u2581Acele": 2625,
  "\u2581yerini": 2626,
  "\u2581clothes": 2627,
  "\u2581Earth": 2628,
  "\u2581istedi\u011fin": 2629,
  "\u2581hepsini": 2630,
  "\u2581fair": 2631,
  "\u2581destek": 2632,
  "\u2581DNA": 2633,
  "\u2581hayat\u0131n\u0131": 2634,
  "\u2581Kutsal": 2635,
  "\u2581g": 2636,
  "\u2581example": 2637,
  "\u2581dangerous": 2638,
  "\u2581gelince": 2639,
  "\u2581de\u011filiz": 2640,
  "\u2581finish": 2641,
  "\u2581te": 2642,
  "\u2581i\u015fim": 2643,
  "yum": 2644,
  "ru": 2645,
  "\u00e7e": 2646,
  "\u2581der": 2647,
  "\u2581Neyse": 2648,
  "\u2581Open": 2649,
  "\u2581derler": 2650,
  "nca": 2651,
  "\u2581as\u0131l": 2652,
  "\u2581edebilir": 2653,
  "\u2581relationship": 2654,
  "\u2581ad\u0131n\u0131": 2655,
  "\u2581verdi\u011fi": 2656,
  "\u2581moved": 2657,
  "\u2581charge": 2658,
  "\u2581realize": 2659,
  "\u2581kap\u0131": 2660,
  "\u2581\u00c7ocuk": 2661,
  "po": 2662,
  "\u2581acaba": 2663,
  "\u2581accident": 2664,
  "4": 2665,
  "\u2581tehlikeli": 2666,
  "\u2581field": 2667,
  "\u2581witness": 2668,
  "\u2581anlam\u0131na": 2669,
  "\u2581Watch": 2670,
  "\u2581d\u00fcnyan\u0131n": 2671,
  "\u2581Welcome": 2672,
  "\u2581calls": 2673,
  "\u2581whether": 2674,
  "\u2581patient": 2675,
  "\u2581More": 2676,
  "\u2581Be\u015f": 2677,
  "\u2581fell": 2678,
  "\u2581\u00f6ld\u00fcrmek": 2679,
  "\u00fcn\u00fc": 2680,
  "\u2581Ja": 2681,
  "\u2581\u015eunu": 2682,
  "gen": 2683,
  "\u2581imagine": 2684,
  "\u2581\u015euna": 2685,
  "lar\u0131yla": 2686,
  "d\u0131n\u0131z": 2687,
  "\u2581song": 2688,
  "\u2581Hell": 2689,
  "\u2581Next": 2690,
  "\u2581veren": 2691,
  "\u2581olmas\u0131n": 2692,
  "\u00e2": 2693,
  "\u2581fix": 2694,
  "\u2581annem": 2695,
  "\u2581yan\u0131na": 2696,
  "\u2581arkada\u015f\u0131": 2697,
  "yen": 2698,
  "\u2581Ara": 2699,
  "diniz": 2700,
  "\u2581\u00e7ift": 2701,
  "\u2581\u00c7abuk": 2702,
  "\u2581sitting": 2703,
  "\u00fcm": 2704,
  "\u2581ex": 2705,
  "abiliriz": 2706,
  "\u2581stopped": 2707,
  "He": 2708,
  "eth": 2709,
  "\u2581hasn": 2710,
  "\u2581proud": 2711,
  "all": 2712,
  "\u2581spent": 2713,
  "\u2581Sak\u0131n": 2714,
  "\u2581promised": 2715,
  "mas\u0131n\u0131": 2716,
  "\u2581yapacaks\u0131n": 2717,
  "\u2581otur": 2718,
  "\u2581alaca\u011f\u0131m": 2719,
  "\u2581grup": 2720,
  "\u2581Big": 2721,
  "melisin": 2722,
  "\u2581Didn": 2723,
  "\u2581veriyor": 2724,
  "\u2581kahve": 2725,
  "\u2581wearing": 2726,
  "\u2581final": 2727,
  "\u2581k\u00f6pek": 2728,
  "\u2581Ke\u015fke": 2729,
  "\u2581olmal\u0131s\u0131n": 2730,
  "\u2581forgot": 2731,
  "\u2581IT": 2732,
  "\u2581often": 2733,
  "we": 2734,
  "\u2581\u015fehir": 2735,
  "\u2581\u00e7a\u011f\u0131r": 2736,
  "mal\u0131y\u0131m": 2737,
  "\u2581resmi": 2738,
  "yo": 2739,
  "\u2581G\u00f6r\u00fc\u015f\u00fcr\u00fcz": 2740,
  "\u2581buddy": 2741,
  "\u2581ufak": 2742,
  "\u2581Charles": 2743,
  "sinin": 2744,
  "\u2581sizinle": 2745,
  "\u2581bizimle": 2746,
  "\u2581Last": 2747,
  "lar\u0131n\u0131z\u0131": 2748,
  "\u2581forward": 2749,
  "\u2581tak": 2750,
  "\u2581anl\u0131yorum": 2751,
  "\u2581hat\u0131rl\u0131yor": 2752,
  "ktan": 2753,
  "\u2581Hen\u00fcz": 2754,
  "\u2581Kate": 2755,
  "\u2581tehdit": 2756,
  "\u2581Hatta": 2757,
  "\u2581buldun": 2758,
  "Hay\u0131r": 2759,
  "\u2581decision": 2760,
  "\u2581haline": 2761,
  "\u2581neither": 2762,
  "\u2581Bi": 2763,
  "\u2581kelime": 2764,
  "\u2581evine": 2765,
  "\u2581Anyway": 2766,
  "\u2581\u0130\u015fe": 2767,
  "for": 2768,
  "\u2581kafa": 2769,
  "lanm\u0131\u015f": 2770,
  "\u2581seviyor": 2771,
  "\u2581Var": 2772,
  "\u2581ger\u00e7e\u011fi": 2773,
  "\u2581accept": 2774,
  "\u2581oldu\u011fun": 2775,
  "\u2581gerekiyordu": 2776,
  "\u2581s\u00f6yl\u00fcyorsun": 2777,
  "\u2581bought": 2778,
  "\u2581missed": 2779,
  "\u2581Eric": 2780,
  "\u2581Chris": 2781,
  "\u2581visit": 2782,
  "\u2581di": 2783,
  "\u2581Car": 2784,
  "\u2581Sonunda": 2785,
  "\u2581killer": 2786,
  "\u2581Hava": 2787,
  "\u2581marry": 2788,
  "\u2581Doctor": 2789,
  "\u2581gives": 2790,
  "\u2581Har": 2791,
  "li\u011fe": 2792,
  "\u2581Has": 2793,
  "\u2581suppose": 2794,
  "\u2581Gece": 2795,
  "\u2581verici": 2796,
  "\u2581quiet": 2797,
  "\u2581d\u00fcnyada": 2798,
  "less": 2799,
  "\u2581Anna": 2800,
  "_": 2801,
  "\u2581g\u00f6r\u00fcyorum": 2802,
  "\u2581Over": 2803,
  "ish": 2804,
  "\u2581g\u00f6r\u00fcyor": 2805,
  "\u2581apartment": 2806,
  "\u2581hediye": 2807,
  "don": 2808,
  "\u2581card": 2809,
  "lerim": 2810,
  "ger": 2811,
  "ym\u0131\u015f": 2812,
  "\u2581contact": 2813,
  "\u2581file": 2814,
  "\u2581Anl\u0131yorum": 2815,
  "\u2581Perhaps": 2816,
  "ama": 2817,
  "\u2581Fire": 2818,
  "st": 2819,
  "\u2581Tatl\u0131m": 2820,
  "\u2581smart": 2821,
  "\u2581al\u0131yor": 2822,
  "\u2581third": 2823,
  "\u2581Since": 2824,
  "\u2581train": 2825,
  "\u2581istiyorsan": 2826,
  "hmm": 2827,
  "\u2581gurur": 2828,
  "\u2581cell": 2829,
  "\u2581hatta": 2830,
  "\u2581zengin": 2831,
  "\u2581sert": 2832,
  "\u2581bank": 2833,
  "\u2581European": 2834,
  "\u2581paper": 2835,
  "\u2581bazen": 2836,
  "\u2581\u015eaka": 2837,
  "\u2581Mother": 2838,
  "\u2581g\u00f6rmeye": 2839,
  "\u2581kulak": 2840,
  "\u2581\u00f6n": 2841,
  "\u2581~": 2842,
  "\u25810": 2843,
  "\u2581blow": 2844,
  "\u2581sakin": 2845,
  "\u2581interested": 2846,
  "\u2581attention": 2847,
  "\u2581involved": 2848,
  "pi": 2849,
  "l\u0131\u011fa": 2850,
  "\u2581yapal\u0131m": 2851,
  "\u2581Cor": 2852,
  "ece\u011fiz": 2853,
  "inin": 2854,
  "\u2581Ni": 2855,
  "\u2581wrote": 2856,
  "\u2581fighting": 2857,
  "\u2581yapar\u0131m": 2858,
  "\u2581Huh": 2859,
  "\u2581window": 2860,
  "\u2581wake": 2861,
  "\u2581above": 2862,
  "hu": 2863,
  "\u2581do\u011fum": 2864,
  "\u2581station": 2865,
  "\u2581la": 2866,
  "m\u0131yor": 2867,
  "\u2581Mor": 2868,
  "\u2581boat": 2869,
  "mayacak": 2870,
  "\u2581girlfriend": 2871,
  "\u2581boyfriend": 2872,
  "gan": 2873,
  "\u2581ziyaret": 2874,
  "\u2581kavga": 2875,
  "\u2581difficult": 2876,
  "\u2581Yanl\u0131\u015f": 2877,
  "\u2581tan\u0131yor": 2878,
  "\u2581Hepimiz": 2879,
  "\u2581bilmiyordum": 2880,
  "ici": 2881,
  "\u2581English": 2882,
  "\u2581ball": 2883,
  "\u2581agree": 2884,
  "\u2581Bobby": 2885,
  "\u2581ways": 2886,
  "\u2581kara": 2887,
  "\u2581paray\u0131": 2888,
  "\u2581cop": 2889,
  "\u2581standing": 2890,
  "lar\u0131m\u0131z\u0131": 2891,
  "\u2581beyler": 2892,
  "\u2581Ooh": 2893,
  "\u2581ice": 2894,
  "\u2581account": 2895,
  "\u2581lived": 2896,
  "\u2581quick": 2897,
  "\u2581self": 2898,
  "\u2581star": 2899,
  "\u2581Nas\u0131ls\u0131n": 2900,
  "\u2581]": 2901,
  "\u2581strange": 2902,
  "\u2581Po": 2903,
  "\u2581iyisi": 2904,
  "\u2581alt\u0131na": 2905,
  "\u2581edildi": 2906,
  "\u2581istiyoruz": 2907,
  "\u2581yapmam": 2908,
  "\u2581\u00e7e\u015fit": 2909,
  "\u2581t\u00fcrl\u00fc": 2910,
  "\u2581\u00d6zel": 2911,
  "\u2581mercy": 2912,
  "lerimiz": 2913,
  "\u2581victim": 2914,
  "\u2581trip": 2915,
  "\u2581letter": 2916,
  "ary": 2917,
  "\u2581hepimiz": 2918,
  "\u2581sizden": 2919,
  "\u2581fish": 2920,
  "\u2581lunch": 2921,
  "ysa": 2922,
  "may\u0131n": 2923,
  "han": 2924,
  "\u2581appreciate": 2925,
  "\u2581Anything": 2926,
  "\u2581geldi\u011fini": 2927,
  "\u2581\u00e7\u0131kan": 2928,
  "\u2581na": 2929,
  "ece\u011fini": 2930,
  "\u2581Kar": 2931,
  "\u2581eight": 2932,
  "\u2581Sit": 2933,
  "mon": 2934,
  "mayaca\u011f\u0131m": 2935,
  "\u2581verece\u011fim": 2936,
  "les": 2937,
  "\u2581gentlemen": 2938,
  "\u2581a\u015fk": 2939,
  "\u2581Show": 2940,
  "\u2581hakl\u0131": 2941,
  "meliyiz": 2942,
  "\u2581y\u0131l\u0131nda": 2943,
  "\u2581scene": 2944,
  "\u258121": 2945,
  "\u2581bear": 2946,
  "\u2581giden": 2947,
  "ow": 2948,
  "\u2581round": 2949,
  "\u2581Hakl\u0131s\u0131n": 2950,
  "m\u0131\u015ft\u0131r": 2951,
  "\u2581araya": 2952,
  "\u2581s\u00f6ylemi\u015ftim": 2953,
  "\u2581interesting": 2954,
  "rs": 2955,
  "\u2581edenler": 2956,
  "\u2581Neyi": 2957,
  "\u2581kiss": 2958,
  "\u2581unless": 2959,
  "\u2581galiba": 2960,
  "\u2581reach": 2961,
  "\u2581Still": 2962,
  "\u2581model": 2963,
  "\u2581Yaln\u0131z": 2964,
  "\u2581lan": 2965,
  "\u2581o\u011flu": 2966,
  "leriyle": 2967,
  "\u2581yak\u0131nda": 2968,
  "\u2581yava\u015f": 2969,
  "\u2581i\u015fini": 2970,
  "\u2581rock": 2971,
  "\u2581Vi": 2972,
  "\u2581fikrim": 2973,
  "\u2581ileri": 2974,
  "\u2581alm\u0131\u015f": 2975,
  "\u2581de\u011fi\u015ftir": 2976,
  "\u2581ilgin\u00e7": 2977,
  "\u2581worship": 2978,
  "\u2581deep": 2979,
  "leme": 2980,
  "\u2581olas\u0131": 2981,
  "s\u0131nda": 2982,
  "\u2581etti\u011fini": 2983,
  "\u2581Du": 2984,
  "\u2581Sometimes": 2985,
  "\u2581kalmak": 2986,
  "\u2581muhtemelen": 2987,
  "\u2581sald\u0131r\u0131": 2988,
  "s\u00fcn": 2989,
  "\u2581isteyen": 2990,
  "que": 2991,
  "\u2581Kevin": 2992,
  "l\u00fck": 2993,
  "\u2581Ate\u015f": 2994,
  "\u2581yap\u0131lan": 2995,
  "\u2581forth": 2996,
  "\u2581ek": 2997,
  "\u2581i\u015faret": 2998,
  "\u2581geliyorum": 2999,
  "\u2581store": 3000,
  "\u2581Brian": 3001,
  "\u2581favor": 3002,
  "\u2581kal\u0131n": 3003,
  "\u2581private": 3004,
  "\u2581count": 3005,
  "\u2581Walter": 3006,
  "\u2581America": 3007,
  "\u2581gay": 3008,
  "\u2581blue": 3009,
  "ant": 3010,
  "\u2581Kaptan": 3011,
  "\u2581ya\u015f\u0131yor": 3012,
  "\u2581yapt\u0131k": 3013,
  "\u2581==": 3014,
  "\u2581babas\u0131": 3015,
  "\u2581Ro": 3016,
  "\u2581page": 3017,
  "\u2581named": 3018,
  "\u2581e\u015f": 3019,
  "\u2581thy": 3020,
  "\u2581broken": 3021,
  "\u2581kurtar": 3022,
  "\u2581mess": 3023,
  "teki": 3024,
  "\u2581ayak": 3025,
  "hi": 3026,
  "\u2581stick": 3027,
  "\u2581arka": 3028,
  "\u2581enjoy": 3029,
  "\u2581/": 3030,
  "\u2581Cha": 3031,
  "\u2581dene": 3032,
  "iniz": 3033,
  "\u2581Kusur": 3034,
  "\u2581nefes": 3035,
  "\u2581smell": 3036,
  "\u2581believed": 3037,
  "\u2581evi": 3038,
  "\u2581kay\u0131p": 3039,
  "\u2581Pa": 3040,
  "taki": 3041,
  "\u2581following": 3042,
  "\u2581g\u00f6nder": 3043,
  "\u2581Nereden": 3044,
  "\u2581Ho\u015f\u00e7a": 3045,
  "\u2581pleasure": 3046,
  "\u2581Kendine": 3047,
  "\u2581drunk": 3048,
  "mi\u015ftir": 3049,
  "\u2581katil": 3050,
  "\u2581finished": 3051,
  "\u2581duruyor": 3052,
  "\u2581Rachel": 3053,
  "6": 3054,
  "\u2581Gidip": 3055,
  "\u2581seat": 3056,
  "\u2581k\u0131z\u0131m": 3057,
  "\u2581prove": 3058,
  "\u015e": 3059,
  "\u2581Bunlar\u0131": 3060,
  "her": 3061,
  "layan": 3062,
  "\u2581indir": 3063,
  "\u2581yukar\u0131": 3064,
  "\u2581er": 3065,
  "\u2581Kendimi": 3066,
  "\u2581benzer": 3067,
  "\u2581yapmay\u0131": 3068,
  "if": 3069,
  "\u2581gift": 3070,
  "\u2581g\u00f6steriyor": 3071,
  "\u2581sat\u0131n": 3072,
  "\u2581bahsediyorsun": 3073,
  "\u2581loves": 3074,
  "\u2581Ca": 3075,
  "\u2581plane": 3076,
  "\u2581Back": 3077,
  "\u2581geldiniz": 3078,
  "\u2581definitely": 3079,
  "\u2581believers": 3080,
  "\u2581tabi": 3081,
  "\u2581Ge\u00e7": 3082,
  "\u2581olmay\u0131": 3083,
  "\u2581passed": 3084,
  "\u2581kan\u0131t": 3085,
  "\u2581\u015faka": 3086,
  "\u2581su\u00e7lu": 3087,
  "\u2581verecek": 3088,
  "\u2581etmez": 3089,
  "\u2581ikna": 3090,
  "\u2581sa\u00e7ma": 3091,
  "\u2581g\u00fcle": 3092,
  "\u2581hotel": 3093,
  "abilirim": 3094,
  "\u2581teach": 3095,
  "\u2581gerekli": 3096,
  "\u2581d\u0131\u015far\u0131da": 3097,
  "\u2581Once": 3098,
  "ia": 3099,
  "\u2581vur": 3100,
  "lerinizi": 3101,
  "\u2581Mutlu": 3102,
  "mp": 3103,
  "\u2581derin": 3104,
  "\u2581davran": 3105,
  "\u2581grow": 3106,
  "ov": 3107,
  "\u2581Otur": 3108,
  "\u2581g\u00fcvenli": 3109,
  "\u2581Araba": 3110,
  "\u2581gitsin": 3111,
  "\u2581g\u00f6rev": 3112,
  "d\u00fc": 3113,
  "\u2581Eddie": 3114,
  "\u2581dahil": 3115,
  "\u2581path": 3116,
  "And": 3117,
  "\u2581excuse": 3118,
  "\u2581k\u0131r": 3119,
  "\u2581haberi": 3120,
  "\u2581Hurry": 3121,
  "abilirsin": 3122,
  "\u2581\u0130nan": 3123,
  "\u2581Yalan": 3124,
  "\u2581bunlar\u0131n": 3125,
  "\u2581biriyle": 3126,
  "\u2581kalk": 3127,
  "mesi": 3128,
  "\u2581geldik": 3129,
  "\u2581planet": 3130,
  "\u2581kap": 3131,
  "old": 3132,
  "chi": 3133,
  "\u2581Love": 3134,
  "\u2581low": 3135,
  "\u2581kazan": 3136,
  "\u2581resim": 3137,
  "\u2581vakti": 3138,
  "\u2581alacak": 3139,
  "\u2581g\u00fcnler": 3140,
  "Do": 3141,
  "\u2581seconds": 3142,
  "\u2581olay\u0131": 3143,
  "\u2581kaza": 3144,
  "sta": 3145,
  "\u2581Pi": 3146,
  "\u2581address": 3147,
  "\u2581truck": 3148,
  "\u2581serbest": 3149,
  "\u2581i\u015fleri": 3150,
  "\u2581towards": 3151,
  "\u2581feels": 3152,
  "\u0131yoruz": 3153,
  "\u2581Ad\u0131": 3154,
  "\u2581G\u00f6r\u00fcn\u00fc\u015f": 3155,
  "\u2581birden": 3156,
  "\u2581destroy": 3157,
  "\u2581kalma": 3158,
  "eyim": 3159,
  "\u2581hundred": 3160,
  "\u2581learned": 3161,
  "\u2581starting": 3162,
  "lerimi": 3163,
  "\u2581Sakin": 3164,
  "\u2581cops": 3165,
  "\u2581Scott": 3166,
  "\u2581reward": 3167,
  "\u2581AB": 3168,
  "\u2581Yemek": 3169,
  "\u2581Fa": 3170,
  "\u2581Biliyorsun": 3171,
  "\u2581anlam\u0131": 3172,
  "\u2581Matt": 3173,
  "year": 3174,
  "\u2581lawyer": 3175,
  "\u2581so\u011fuk": 3176,
  "\u2581kalm\u0131\u015f": 3177,
  "\u2581Kur": 3178,
  "\u2581tip": 3179,
  "\u2581tree": 3180,
  "\u2581\u00e7al\u0131\u015f\u0131yorsun": 3181,
  "\u2581wall": 3182,
  "\u2581anlad\u0131m": 3183,
  "\u2581command": 3184,
  "\u2581demektir": 3185,
  "\u2581Too": 3186,
  "\u2581a\u015f\u0131k": 3187,
  "\u2581rich": 3188,
  "\u2581olmad\u0131\u011f\u0131": 3189,
  "\u2581b\u0131rak\u0131n": 3190,
  "\u2581surprise": 3191,
  "\u2581ourselves": 3192,
  "\u2581Tim": 3193,
  "lard\u0131r": 3194,
  "vo": 3195,
  "\u2581study": 3196,
  "\u2581yapabilirim": 3197,
  "\u2581Ajan": 3198,
  "\u2581hedef": 3199,
  "\u2581k\u0131sm\u0131": 3200,
  "\u2581Hu": 3201,
  "\u2581angry": 3202,
  "\u2581dress": 3203,
  "\u2581miles": 3204,
  "\u2581fly": 3205,
  "\u2581type": 3206,
  "\u2581heaven": 3207,
  "met": 3208,
  "kan": 3209,
  "\u2581local": 3210,
  "\u2581equal": 3211,
  "\u2581club": 3212,
  "\u2581alt": 3213,
  "\u2581Try": 3214,
  "\u2581Ye": 3215,
  "\u2581zamanlarda": 3216,
  "\u2581Tu": 3217,
  "\u2581engel": 3218,
  "\u00e7\u0131": 3219,
  "\u2581\u00f6ld\u00fcrd\u00fc": 3220,
  "\u2581sona": 3221,
  "\u2581d\u0131\u015f\u0131": 3222,
  "\u2581spirit": 3223,
  "\u0131\u015f": 3224,
  "\u2581judge": 3225,
  "\u2581dying": 3226,
  "\u2581yolunu": 3227,
  "\u2581Ga": 3228,
  "\u2581board": 3229,
  "\u2581korku": 3230,
  "bar": 3231,
  "\u2581kap\u0131y\u0131": 3232,
  "\u2581Ev": 3233,
  "\u2581rules": 3234,
  "\u2581yapt\u0131\u011f\u0131m": 3235,
  "\u2581difference": 3236,
  "\u2581experience": 3237,
  "\u2581olman": 3238,
  "sana": 3239,
  "\u2581blame": 3240,
  "\u2581M\u00fckemmel": 3241,
  "\u2581inkar": 3242,
  "\u2581k\u0131zlar": 3243,
  "\u2581honest": 3244,
  "\u2581yapabilir": 3245,
  "\u2581kendisine": 3246,
  "\u2581dude": 3247,
  "\u2581e\u011flenceli": 3248,
  "):": 3249,
  "\u2581arkada\u015f\u0131n": 3250,
  "\u2581helped": 3251,
  "\u2581adama": 3252,
  "\u2581\u00e7ekil": 3253,
  "\u2581\u00f6deme": 3254,
  "\u2581Anla\u015f\u0131ld\u0131": 3255,
  "\u2581deeds": 3256,
  "amaz": 3257,
  "\u2581Luke": 3258,
  "\u2581\u0131\u015f\u0131k": 3259,
  "\u2581computer": 3260,
  "\u2581istemedim": 3261,
  "\u0131k": 3262,
  "\u2581Black": 3263,
  "\u2581holding": 3264,
  "\u2581m\u00fccadele": 3265,
  "\u2581sad": 3266,
  "\u2581Neredeyse": 3267,
  "\u258123": 3268,
  "\u2581k\u0131z\u0131n": 3269,
  "\u2581ders": 3270,
  "\u2581zorunday\u0131m": 3271,
  "\u2581Billy": 3272,
  "\u2581\u00e7\u0131kma": 3273,
  "m\u0131yorum": 3274,
  "ot": 3275,
  "\u2581Kal": 3276,
  "dunuz": 3277,
  "inden": 3278,
  "\u2581koruma": 3279,
  "\u2581\u0130nsan": 3280,
  "\u2581Time": 3281,
  "\u2581walking": 3282,
  "\u2581sesi": 3283,
  "\u2581s\u00fcrece": 3284,
  "\u2581s\u0131rada": 3285,
  "ker": 3286,
  "\u2581yana": 3287,
  "\u2581Han": 3288,
  "\u2581Carl": 3289,
  "wa": 3290,
  "\u2581gold": 3291,
  "\u2581r\u00fcya": 3292,
  "\u2581City": 3293,
  "\u2581ayr\u0131ca": 3294,
  "\u2581yakla\u015f\u0131k": 3295,
  "\u00f6r": 3296,
  "\u2581ar\u0131yor": 3297,
  "\u2581iddia": 3298,
  "\u2581\u00f6\u011frenmek": 3299,
  "\u2581college": 3300,
  "\u2581energy": 3301,
  "\u2581s\u00f6yleyeyim": 3302,
  "\u2581\u00f6rnek": 3303,
  "\u2581Zaman": 3304,
  "\u2581upset": 3305,
  "\u2581zevk": 3306,
  "ate": 3307,
  "way": 3308,
  "tin": 3309,
  "\u2581honor": 3310,
  "\u2581cry": 3311,
  "\u2581\u00c7": 3312,
  "\u2581further": 3313,
  "\u2581due": 3314,
  "\u2581ara\u015ft\u0131rma": 3315,
  "\u2581olan\u0131": 3316,
  "\u2581Ke": 3317,
  "lak": 3318,
  "\u2581perhaps": 3319,
  "\u2581beginning": 3320,
  "\u2581sevgi": 3321,
  "\u0131c\u0131": 3322,
  "\u2581konusu": 3323,
  "\u2581sake": 3324,
  "amam": 3325,
  "s\u0131ndan": 3326,
  "\u2581Chi": 3327,
  "\u2581tavsiye": 3328,
  "shi": 3329,
  "\u2581West": 3330,
  "\u2581continue": 3331,
  "\u2581taste": 3332,
  "\u2581Ba\u015f": 3333,
  "\u2581enemy": 3334,
  "kin": 3335,
  "\u2581gidecek": 3336,
  "\u2581dayan": 3337,
  "\u2581jail": 3338,
  "\u2581hungry": 3339,
  "\u2581deme": 3340,
  "\u2581Ho\u015f": 3341,
  "\u2581metre": 3342,
  "\u2581Bende": 3343,
  "\u2581Simon": 3344,
  "\u2581kimseye": 3345,
  "\u2581Gu": 3346,
  "\u2581g\u00fcc\u00fc": 3347,
  "\u2581yerden": 3348,
  "\u2581Sal": 3349,
  "\u2581yan\u0131": 3350,
  "mer": 3351,
  "\u2581kimsenin": 3352,
  "\u2581yabanc\u0131": 3353,
  "ren": 3354,
  "\u2581Johnny": 3355,
  "\u2581build": 3356,
  "\u2581yarar": 3357,
  "\u2581Honey": 3358,
  "\u2581yapamam": 3359,
  "ron": 3360,
  "land\u0131": 3361,
  "\u2581fark\u0131nda": 3362,
  "\u2581liked": 3363,
  "\u2581Amy": 3364,
  "t\u00fc": 3365,
  "\u2581tough": 3366,
  "\u2581Clark": 3367,
  "\u2581ya\u015fayan": 3368,
  "\u2581Van": 3369,
  "\u2581Claire": 3370,
  "\u2581ikiniz": 3371,
  "\u2581Before": 3372,
  "\u2581Kat": 3373,
  "\u2581wine": 3374,
  "ies": 3375,
  "\u2581Dostum": 3376,
  "\u2581\u00e7ocuklar\u0131": 3377,
  "\u2581cash": 3378,
  "\u2581level": 3379,
  "\u2581Out": 3380,
  "\u2581choose": 3381,
  "abilecek": 3382,
  "\u2581gas": 3383,
  "\u2581afternoon": 3384,
  "\u2581yolda": 3385,
  "\u2581French": 3386,
  "\u2581pislik": 3387,
  "\u2581general": 3388,
  "\u2581AND": 3389,
  "\u2581gayet": 3390,
  "\u2581200": 3391,
  "\u2581istiyorsunuz": 3392,
  "\u2581adamlar": 3393,
  "\u2581mission": 3394,
  "\u2581Anlad\u0131m": 3395,
  "\u2581Nedir": 3396,
  "\u2581names": 3397,
  "\u2581\u00f6lm\u00fc\u015f": 3398,
  "\u258122": 3399,
  "\u2581whoever": 3400,
  "\u2581\u0130yiyim": 3401,
  "\u2581Jerry": 3402,
  "\u2581istemem": 3403,
  "\u2581driving": 3404,
  "\u2581pro": 3405,
  "7": 3406,
  "\u2581idiot": 3407,
  "\u2581brothers": 3408,
  "\u2581getirdim": 3409,
  "\u2581g\u00f6rmedim": 3410,
  "Ha": 3411,
  "\u2581geldi\u011finde": 3412,
  "\u2581tedavi": 3413,
  "\u2581crap": 3414,
  "\u2581foot": 3415,
  "\u2581worst": 3416,
  "\u2581gibiydi": 3417,
  "\u2581hayat\u0131": 3418,
  "\u2581hath": 3419,
  "\u2581olabilirim": 3420,
  "\u2581can\u0131na": 3421,
  "\u2581hurry": 3422,
  "ous": 3423,
  "\u2581magic": 3424,
  "\u2581m\u00fczik": 3425,
  "\u2581ladies": 3426,
  "\u2581Baban": 3427,
  "\u2581Pete": 3428,
  "\u2581yoldan": 3429,
  "\u2581ayr\u0131": 3430,
  "\u2581duydun": 3431,
  "\u2581drug": 3432,
  "ret": 3433,
  "\u2581sever": 3434,
  "\u2581onlarla": 3435,
  "\u2581EU": 3436,
  "\u2581herkesin": 3437,
  "\u2581kalmad\u0131": 3438,
  "\u2581Andy": 3439,
  "\u2581verdik": 3440,
  "mde": 3441,
  "\u2581buraday\u0131m": 3442,
  "\u2581machine": 3443,
  "\u2581yay\u0131n": 3444,
  "\u2581bulun": 3445,
  "\u2581Dave": 3446,
  "\u2581neyin": 3447,
  "\u2581stuck": 3448,
  "\u2581m": 3449,
  "\u2581\u00c7\u0131k": 3450,
  "\u2581owe": 3451,
  "\u2581Chuck": 3452,
  "\u2581ki\u015finin": 3453,
  "tic": 3454,
  "\u2581Check": 3455,
  "\u2581yaz\u0131k": 3456,
  "\u2581aras\u0131ndaki": 3457,
  "\u2581gittim": 3458,
  "meyecek": 3459,
  "\u2581olacakt\u0131r": 3460,
  "\u2581elinde": 3461,
  "\u2581sin": 3462,
  "\u2581Pro": 3463,
  "\u2581durdur": 3464,
  "\u2581ak": 3465,
  "\u2581sky": 3466,
  "\u2581putting": 3467,
  "\u2581Say\u0131n": 3468,
  "\u2581Moses": 3469,
  "\u2581Minister": 3470,
  "\u2581unut": 3471,
  "\u2581fool": 3472,
  "\u2581gelmek": 3473,
  "\u2581kar\u015f\u0131l\u0131k": 3474,
  "\u2581kad\u0131n\u0131n": 3475,
  "\u2581Want": 3476,
  "\u2581tarafa": 3477,
  "\u2581common": 3478,
  "\u2581s\u0131ras\u0131nda": 3479,
  "\u2581Thomas": 3480,
  "\u2581horse": 3481,
  "Ey": 3482,
  "op": 3483,
  "\u2581fena": 3484,
  "\u2581admit": 3485,
  "\u2581nedeni": 3486,
  "\u2581fit": 3487,
  "mar": 3488,
  "\u2581ceza": 3489,
  "\u2581edeyim": 3490,
  "\u2581escape": 3491,
  "\u2581Olur": 3492,
  "\u2581Ted": 3493,
  "\u2581bus": 3494,
  "\u2581mention": 3495,
  "\u2581a\u015fk\u0131na": 3496,
  "\u2581taraf\u0131": 3497,
  "t\u0131m": 3498,
  "\u2581oldun": 3499,
  "\u2581uyan": 3500,
  "\u2581h\u00fck\u00fcm": 3501,
  "\u2581s\u00f6yler": 3502,
  "\u2581\u0130kinci": 3503,
  "\u2581bil": 3504,
  "\u2581drugs": 3505,
  "\u2581Somebody": 3506,
  "ize": 3507,
  "\u2581joke": 3508,
  "Oh": 3509,
  "\u2581consider": 3510,
  "\u2581Kral": 3511,
  "\u2581lovely": 3512,
  "\u2581carry": 3513,
  "\u2581destroyed": 3514,
  "\u2581kald\u0131m": 3515,
  "\u0131lm\u0131\u015f": 3516,
  "\u2581Mmm": 3517,
  "\u2581House": 3518,
  "\u2581kalp": 3519,
  "\u2581enerji": 3520,
  "\u2581acele": 3521,
  "\u2581taraftan": 3522,
  "\u2581Mal": 3523,
  "\u2581Messenger": 3524,
  "\u2581arm": 3525,
  "\u2581army": 3526,
  "mi\u015fti": 3527,
  "\u2581uyar": 3528,
  "\u2581yap\u0131yoruz": 3529,
  "\u2581Lisa": 3530,
  "out": 3531,
  "gar": 3532,
  "\u2581bastard": 3533,
  "\u2581figured": 3534,
  "\u2581ge\u00e7ir": 3535,
  "\u2581Jason": 3536,
  "\u2581Sava\u015f": 3537,
  "\u2581kad\u0131nlar": 3538,
  "\u2581asker": 3539,
  "\u2581bizden": 3540,
  "\u2581alma": 3541,
  "\u2581match": 3542,
  "\u2581allowed": 3543,
  "\u2581White": 3544,
  "\u2581azap": 3545,
  "\u2581weapon": 3546,
  "ive": 3547,
  "\u2581Maria": 3548,
  "\u2581held": 3549,
  "\u2581books": 3550,
  "\u2581showed": 3551,
  "lerimizi": 3552,
  "\u2581cute": 3553,
  "\u2581Ze": 3554,
  "\u2581helping": 3555,
  "\u2581sleeping": 3556,
  "\u2581d\u00fc\u015f\u00fcnm\u00fc\u015ft\u00fcm": 3557,
  "\u2581gidin": 3558,
  "\u2581etti\u011fi": 3559,
  "\u2581olaca\u011f\u0131z": 3560,
  "\u2581Roger": 3561,
  "can": 3562,
  "lerdir": 3563,
  "This": 3564,
  "\u2581d\u00fcr\u00fcst": 3565,
  "\u2581avukat": 3566,
  "\u2581listening": 3567,
  "\u2581dalga": 3568,
  "\u2581large": 3569,
  "\u2581thousand": 3570,
  "\u2581mutlaka": 3571,
  "\u2581huge": 3572,
  "\u2581Gar": 3573,
  "\u2581Their": 3574,
  "\u2581Un": 3575,
  "\u2581hayvan": 3576,
  "\u2581\u015e\u00fcphesiz": 3577,
  "\u2581Si": 3578,
  "\u2581complete": 3579,
  "\u2581duyuyor": 3580,
  "ku": 3581,
  "\u2581darling": 3582,
  "\u2581burda": 3583,
  "\u2581Stan": 3584,
  "ham": 3585,
  "\u2581a\u015f\u0131r\u0131": 3586,
  "\u2581Emily": 3587,
  "\u2581\u00e7oktan": 3588,
  "\u2581fat": 3589,
  "\u2581bo": 3590,
  "\u2581yapt\u0131\u011f\u0131n": 3591,
  "\u2581calm": 3592,
  "\u2581feelings": 3593,
  "\u2581olduklar\u0131n\u0131": 3594,
  "\u2581iyidir": 3595,
  "line": 3596,
  "my": 3597,
  "\u2581ikisi": 3598,
  "tar": 3599,
  "\u2581ba\u015f\u0131ma": 3600,
  "\u2581Aptal": 3601,
  "kten": 3602,
  "may\u0131": 3603,
  "\u2581d\u00fc\u015fman": 3604,
  "\u258160": 3605,
  "\u2581istedi\u011fi": 3606,
  "\u2581places": 3607,
  "\u2581ba\u015fla": 3608,
  "\u2581kullanma": 3609,
  "\u2581wind": 3610,
  "\u2581blind": 3611,
  "\u2581action": 3612,
  "\u2581D\u00f6rt": 3613,
  "\u2581g\u00f6r\u00fc\u015f": 3614,
  "\u2581officer": 3615,
  "\u2581turns": 3616,
  "\u2581kur": 3617,
  "\u2581Bring": 3618,
  "8": 3619,
  "ER": 3620,
  "\u2581earlier": 3621,
  "\u2581gitmi\u015f": 3622,
  "\u2581camera": 3623,
  "\u2581kalacak": 3624,
  "\u2581price": 3625,
  "\u2581edelim": 3626,
  "\u2581Emma": 3627,
  "\u2581Boy": 3628,
  "\u2581ald\u0131k": 3629,
  "\u2581G\u00f6rd\u00fcn": 3630,
  "\u2581pressure": 3631,
  "\u2581\u00e7\u0131k\u0131yor": 3632,
  "ks": 3633,
  "\u2581tea": 3634,
  "\u2581korumak": 3635,
  "ndaki": 3636,
  "\u2581tanr\u0131m": 3637,
  "\u2581eating": 3638,
  "\u2581cat": 3639,
  "\u2581hi": 3640,
  "\u2581Pan": 3641,
  "\u2581ediyoruz": 3642,
  "\u2581okul": 3643,
  "\u2581Amerikan": 3644,
  "tal": 3645,
  "\u2581usually": 3646,
  "\u2581president": 3647,
  "\u2581quickly": 3648,
  "\u2581etmeyi": 3649,
  "\u2581\u00d6": 3650,
  "n\u00fcn": 3651,
  "har": 3652,
  "Yeah": 3653,
  "\u2581Agent": 3654,
  "\u2581Yu": 3655,
  "\u2581duty": 3656,
  "000": 3657,
  "\u2581built": 3658,
  "suz": 3659,
  "\u2581d\u00f6nd\u00fc": 3660,
  "\u2581Kyle": 3661,
  "\u2581sorumlu": 3662,
  "\u2581arrest": 3663,
  "\u2581\u0130\u00e7": 3664,
  "\u2581yourselves": 3665,
  "\u2581Arthur": 3666,
  "off": 3667,
  "\u2581Ak": 3668,
  "\u2581gitme": 3669,
  "\u2581Rose": 3670,
  "\u2581\u00e7\u0131k\u0131p": 3671,
  "\u2581giri\u015f": 3672,
  "\u2581yo": 3673,
  "\u2581interest": 3674,
  "\u2581ge\u00e7mi\u015f": 3675,
  "\u2581THAT": 3676,
  "\u2581guilty": 3677,
  "\u2581M\u00fc": 3678,
  "\u2581ettiler": 3679,
  "\u2581Yemin": 3680,
  "\u2581press": 3681,
  "\u2581Bununla": 3682,
  "\u2581notice": 3683,
  "ang": 3684,
  "\u2581War": 3685,
  "\u2581de\u011ferli": 3686,
  "\u2581Phil": 3687,
  "\u2581apart": 3688,
  "\u2581sight": 3689,
  "\u2581Birlikte": 3690,
  "\u2581muhte\u015fem": 3691,
  "\u2581zay\u0131f": 3692,
  "\u2581Alice": 3693,
  "\u2581s\u00f6ylemi\u015ftin": 3694,
  "\u2581Christian": 3695,
  "\u2581muydu": 3696,
  "\u2581Tamamd\u0131r": 3697,
  "\u2581\u2039\u2039": 3698,
  "\u2581Grace": 3699,
  "\u2581search": 3700,
  "\u2581tarafta": 3701,
  "\u2581quit": 3702,
  "\u2581Fazla": 3703,
  "\u2581Y\u00fcr\u00fc": 3704,
  "ING": 3705,
  "l\u0131yor": 3706,
  "\u2581process": 3707,
  "\u2581\u00e7ocu\u011fun": 3708,
  "\u2581Hasta": 3709,
  "ong": 3710,
  "\u2581g\u00fcvende": 3711,
  "var": 3712,
  "n\u0131za": 3713,
  "nce": 3714,
  "\u2581kar": 3715,
  "\u2581Wa": 3716,
  "\u2581market": 3717,
  "\u2581Bo\u015f": 3718,
  "\u2581Galiba": 3719,
  "\u2581Ju": 3720,
  "10": 3721,
  "\u2581pre": 3722,
  "\u2581writing": 3723,
  "\u2581d\u00fc\u015f\u00fcn\u00fcyordum": 3724,
  "ok": 3725,
  "\u2581m\u0131y\u0131m": 3726,
  "\u2581bakay\u0131m": 3727,
  "amazs\u0131n": 3728,
  "\u2581taught": 3729,
  "\u2581staying": 3730,
  "\u2581haydi": 3731,
  "\u2581herhalde": 3732,
  "\u2581Pat": 3733,
  "\u2581ta\u015f": 3734,
  "\u2581\u00c7ek": 3735,
  "\u2581Yeter": 3736,
  "\u2581Mc": 3737,
  "\u2581track": 3738,
  "\u2581Kad\u0131n": 3739,
  "\u2581e\u011fitim": 3740,
  "uk": 3741,
  "\u2581steal": 3742,
  "\u2581baban": 3743,
  "\u2581ilgisi": 3744,
  "ney": 3745,
  "\u2581patron": 3746,
  "\u2581gerekecek": 3747,
  "meyece\u011fim": 3748,
  "\u2581verdin": 3749,
  "\u2581her\u015feyi": 3750,
  "\u2581lies": 3751,
  "\u0131ld\u0131": 3752,
  "\u2581Ku": 3753,
  "\u2581Leo": 3754,
  "\u2581impossible": 3755,
  "\u2581gelmiyor": 3756,
  "\u2581bununla": 3757,
  "\u2581willing": 3758,
  "\u2581Ken": 3759,
  "\u2581Surely": 3760,
  "\u2581\u00e7\u0131km\u0131\u015f": 3761,
  "\u2581double": 3762,
  "\u2581hat\u0131rl\u0131yorum": 3763,
  "\u2581itself": 3764,
  "\u2581ortadan": 3765,
  "\u2581code": 3766,
  "\u2581oldu\u011funda": 3767,
  "\u2581enter": 3768,
  "\u2581decide": 3769,
  "\u2581sonsuza": 3770,
  "\u2581revealed": 3771,
  "\u2581green": 3772,
  "\u2581bilgisayar": 3773,
  "\u0131m\u0131z": 3774,
  "\u2581favorite": 3775,
  "\u2581Cal": 3776,
  "\u2581karanl\u0131k": 3777,
  "\u2581Today": 3778,
  "\u2581raise": 3779,
  "\u2581Chief": 3780,
  "\u00fcp": 3781,
  "\u2581budur": 3782,
  "\u2581bilim": 3783,
  "meliyim": 3784,
  "\u2581Little": 3785,
  "\u2581\u00f6ld\u00fcrme": 3786,
  "\u2581Fi": 3787,
  "\u2581dile": 3788,
  "tor": 3789,
  "\u2581gelmedi": 3790,
  "\u2581b\u0131rakma": 3791,
  "iyorsun": 3792,
  "\u2581Carter": 3793,
  "\u2581Men": 3794,
  "\u2581b\u00f6lge": 3795,
  "i\u015f": 3796,
  "\u2581Ti": 3797,
  "\u2581s\u00f6yleyece\u011fim": 3798,
  "\u2581sar": 3799,
  "\u2581Us": 3800,
  "\u2581bunch": 3801,
  "\u2581bomba": 3802,
  "\u2581gitmem": 3803,
  "\u2581begin": 3804,
  "\u2581beer": 3805,
  "\u2581dost": 3806,
  "fer": 3807,
  "\u2581slow": 3808,
  "Yes": 3809,
  "\u2581Holy": 3810,
  "\u2581inan\u0131lmaz": 3811,
  "\u2581olanlar\u0131": 3812,
  "\u2581extra": 3813,
  "\u2581b\u00fcy\u00fc": 3814,
  "\u2581Olamaz": 3815,
  "\u2581\u00fclke": 3816,
  "\u2581olmam": 3817,
  "\u2581hesap": 3818,
  "s\u0131n\u0131n": 3819,
  "\u2581ba\u015far\u0131l\u0131": 3820,
  "\u2581sence": 3821,
  "age": 3822,
  "\u2581\u00e7\u0131kmak": 3823,
  "\u2581keeping": 3824,
  "\u2581yap\u0131yorsunuz": 3825,
  "\u2581hat": 3826,
  "\u2581duymak": 3827,
  "\u2581gidece\u011fim": 3828,
  "m\u0131n": 3829,
  "\u2581reading": 3830,
  "\u2581create": 3831,
  "\u2581pregnant": 3832,
  "\u2581serve": 3833,
  "\u2581yaz\u0131": 3834,
  "\u2581\u00f6nceden": 3835,
  "\u2581picked": 3836,
  "\u2581g\u00fcnah": 3837,
  "\u2581durma": 3838,
  "\u2581plans": 3839,
  "\u2581ba\u011flant\u0131": 3840,
  "\u2581Mu": 3841,
  "\u2581herself": 3842,
  "d\u0131\u011f\u0131m": 3843,
  "\u2581rid": 3844,
  "\u2581Birisi": 3845,
  "\u2581yapt\u0131klar\u0131": 3846,
  "umu": 3847,
  "\u2581em": 3848,
  "\u2581shop": 3849,
  "\u2581harm": 3850,
  "\u2581cost": 3851,
  "\u2581nine": 3852,
  "\u2581remain": 3853,
  "\u2581n": 3854,
  "\u2581s\u0131k\u0131": 3855,
  "\u2581Uncle": 3856,
  "\u2581bulundu": 3857,
  "\u2581sayesinde": 3858,
  "\u2581Sha": 3859,
  "c\u0131k": 3860,
  "\u2581g\u00fcn\u00fcn": 3861,
  "\u2581g\u00fcne\u015f": 3862,
  "\u2581oldu\u011fumuzu": 3863,
  "cha": 3864,
  "\u2581Alan": 3865,
  "\u2581Kes": 3866,
  "\u2581ba\u015flad\u0131m": 3867,
  "\u2581shoes": 3868,
  "\u00c7": 3869,
  "\u2581ikimiz": 3870,
  "\u2581United": 3871,
  "\u2581hearing": 3872,
  "\u2581Times": 3873,
  "\u2581hole": 3874,
  "\u2581Affedersin": 3875,
  "\u2581written": 3876,
  "\u2581waste": 3877,
  "dun": 3878,
  "Ya": 3879,
  "RE": 3880,
  "\u2581drinking": 3881,
  "\u2581itiraf": 3882,
  "\u2581Los": 3883,
  "\u2581sa\u011flam": 3884,
  "\u2581smoke": 3885,
  "\u2581Dean": 3886,
  "\u2581spot": 3887,
  "\u2581church": 3888,
  "\u2581insan\u0131n": 3889,
  "maz": 3890,
  "\u2581seek": 3891,
  "\u2581Happy": 3892,
  "\u2581village": 3893,
  "\u2581mesele": 3894,
  "\u2581teki": 3895,
  "\u2581military": 3896,
  "\u2581Ac\u0131": 3897,
  "\u2581Bilmem": 3898,
  "\u2581followed": 3899,
  "\u2581buldu": 3900,
  "\u2581gemi": 3901,
  "\u2581ismi": 3902,
  "\u2581Ok": 3903,
  "ara": 3904,
  "\u2581Larry": 3905,
  "\u2581Forget": 3906,
  "\u2581Five": 3907,
  "\u2581Master": 3908,
  "\u2581Were": 3909,
  "\u2581Run": 3910,
  "\u2581push": 3911,
  "\u2581dare": 3912,
  "\u2581Per": 3913,
  "\u2581\u015eef": 3914,
  "\u2581D\u0131\u015far\u0131": 3915,
  "\u2581dollars": 3916,
  "\u2581Yak\u0131nda": 3917,
  "\u2581trial": 3918,
  "\u2581g\u00f6stermek": 3919,
  "ss": 3920,
  "\u2581deniz": 3921,
  "\u2581Erkek": 3922,
  "a\u011f\u0131": 3923,
  "\u2581access": 3924,
  "\u2581dikkatli": 3925,
  "\u2581ileti\u015fim": 3926,
  "\u2581duyuyorum": 3927,
  "\u2581pictures": 3928,
  "\u2581zeki": 3929,
  "mi\u015ftim": 3930,
  "\u2581Another": 3931,
  "\u2581say\u0131": 3932,
  "\u2581yiyecek": 3933,
  "\u2581ba\u015f\u0131nda": 3934,
  "net": 3935,
  "\u2581absolutely": 3936,
  "\u2581bok": 3937,
  "emem": 3938,
  "\u2581ya\u015fama": 3939,
  "\u2581\u00e7al\u0131\u015ft\u0131m": 3940,
  "\u2581y\u00fczde": 3941,
  "\u2581yerin": 3942,
  "\u2581s\u00f6ylemi\u015fti": 3943,
  "\u2581orders": 3944,
  "\u2581purpose": 3945,
  "\u2581Exactly": 3946,
  "\u2581Sean": 3947,
  "\u2581mate": 3948,
  "\u2581kapal\u0131": 3949,
  "\u2581Zor": 3950,
  "\u2581al\u0131yorum": 3951,
  "\u2581kurtul": 3952,
  "\u2581san": 3953,
  "\u2581ard\u0131ndan": 3954,
  "\u2581bathroom": 3955,
  "\u2581b\u0131rak\u0131p": 3956,
  "\u2581f\u0131rsat": 3957,
  "\u2581innocent": 3958,
  "qui": 3959,
  "ydu": 3960,
  "lerdi": 3961,
  "ful": 3962,
  "\u2581closed": 3963,
  "\u2581Yep": 3964,
  "\u2581cross": 3965,
  "\u2581Jeff": 3966,
  "\u2581stole": 3967,
  "\u2581fired": 3968,
  "\u2581health": 3969,
  "\u2581sessiz": 3970,
  "\u2581se\u00e7im": 3971,
  "time": 3972,
  "\u2581Had": 3973,
  "\u2581Gi": 3974,
  "\u2581moon": 3975,
  "\u2581g\u00fcnde": 3976,
  "\u2581gelebilir": 3977,
  "\u2581ba\u015fl\u0131yor": 3978,
  "\u2581Far": 3979,
  "\u2581teacher": 3980,
  "\u2581medical": 3981,
  "\u2581began": 3982,
  "\u2581g\u00f6rm\u00fc\u015f": 3983,
  "\u2581siyah": 3984,
  "\u2581\u00e7\u0131karma": 3985,
  "\u2581oy": 3986,
  "\u2581World": 3987,
  "\u2581However": 3988,
  "\u00ee": 3989,
  "\u2581Olmaz": 3990,
  "\u2581acil": 3991,
  "\u2581Kuzey": 3992,
  "\u2581Alright": 3993,
  "\u2581olurum": 3994,
  "\u2581memory": 3995,
  "\u2581site": 3996,
  "\u2581twice": 3997,
  "\u2581bigger": 3998,
  "\u0131lacak": 3999,
  "\u2581Dude": 4000,
  "\u2581Louis": 4001,
  "\u2581sarho\u015f": 4002,
  "\u2581spoke": 4003,
  "Sen": 4004,
  "\u2581yapmad\u0131m": 4005,
  "\u2581tanr\u0131": 4006,
  "\u2581kad\u0131n\u0131": 4007,
  "\u2581hoping": 4008,
  "\u2581responsible": 4009,
  "\u0131l": 4010,
  "\u015fa": 4011,
  "\u2581sing": 4012,
  "ap": 4013,
  "\u2581etmeyin": 4014,
  "\u2581ederiz": 4015,
  "\u2581zorundas\u0131n": 4016,
  "\u2581severim": 4017,
  "\u2581Washington": 4018,
  "\u2581z": 4019,
  "\u2581olmas\u0131na": 4020,
  "\u2581jump": 4021,
  "\u2581Guys": 4022,
  "\u2581Va": 4023,
  "\u2581istiyorlar": 4024,
  "m\u0131za": 4025,
  "\u00fcl": 4026,
  "\u2581kurban": 4027,
  "\u2581oyunu": 4028,
  "\u2581Em": 4029,
  "\u2581locked": 4030,
  "\u2581deny": 4031,
  "\u2581Ter": 4032,
  "ac": 4033,
  "\u2581view": 4034,
  "wood": 4035,
  "\u015fe": 4036,
  "ud": 4037,
  "day": 4038,
  "\u2581bitir": 4039,
  "\u2581kendilerini": 4040,
  "\u2581Turn": 4041,
  "\u2581grab": 4042,
  "oz": 4043,
  "\u2581\u015eeytan": 4044,
  "\u2581religion": 4045,
  "\u2581guard": 4046,
  "\u2581izle": 4047,
  "\u2581sigara": 4048,
  "\u2581Detective": 4049,
  "\u2581Ms": 4050,
  "\u2581uzakta": 4051,
  "\u2581silah\u0131": 4052,
  "\u2581Ad\u0131m": 4053,
  "\u2581i\u011fren\u00e7": 4054,
  "\u2581Susan": 4055,
  "\u2581Aferin": 4056,
  "\u2581Yan": 4057,
  "\u2581tan\u0131yorum": 4058,
  "\u2581\u00f6\u011fren": 4059,
  "\u2581Cam": 4060,
  "\u2581Do\u011frusu": 4061,
  "\u2581lo": 4062,
  "\u2581pe\u015finde": 4063,
  "\u2581numbers": 4064,
  "\u2581glass": 4065,
  "\u2581Israel": 4066,
  "\u2581Lieutenant": 4067,
  "\u2581radio": 4068,
  "\u2581OF": 4069,
  "je": 4070,
  "\u2581aware": 4071,
  "\u2581\u0130\u015fin": 4072,
  "\u2581kick": 4073,
  "%": 4074,
  "\u2581immediately": 4075,
  "\u2581a\u00e7\u0131klama": 4076,
  "\u2581ya\u015famak": 4077,
  "\u2581animals": 4078,
  "\u2581dreams": 4079,
  "\u2581nedenle": 4080,
  "\u2581allow": 4081,
  "\u2581Dedektif": 4082,
  "\u2581Hayat": 4083,
  "\u2581kahraman": 4084,
  "\u2581yaramaz": 4085,
  "\u2581kitab\u0131": 4086,
  "\u2581major": 4087,
  "\u2581master": 4088,
  "\u2581yoluna": 4089,
  "\u2581Bilirsin": 4090,
  "\u2581race": 4091,
  "\u2581G\u00fcle": 4092,
  "\u2581according": 4093,
  "\u2581truly": 4094,
  "\u2581played": 4095,
  "\u2581seriously": 4096,
  "uyor": 4097,
  "\u2581sevgili": 4098,
  "\u2581summer": 4099,
  "\u2581speaking": 4100,
  "lon": 4101,
  "\u2581countries": 4102,
  "\u2581sol": 4103,
  "\u2581se": 4104,
  "\u2581parmak": 4105,
  "\u2581skin": 4106,
  "tch": 4107,
  "\u2581d\u00f6n\u00fcp": 4108,
  "\u2581seksi": 4109,
  "\u2581isterdim": 4110,
  "\u2581Aile": 4111,
  "\u2581shows": 4112,
  "\u2581ay\u0131r": 4113,
  "\u2581danger": 4114,
  "\u2581ili\u015fki": 4115,
  "\u2581surprised": 4116,
  "\u2581States": 4117,
  "\u2581several": 4118,
  "\u2581suspect": 4119,
  "\u2581bomb": 4120,
  "\u2581advice": 4121,
  "ted": 4122,
  "\u2581Ali": 4123,
  "\u2581hiding": 4124,
  "ben": 4125,
  "\u25811,": 4126,
  "\u2581in\u015fa": 4127,
  "\u2581kendime": 4128,
  "\u2581Long": 4129,
  "\u2581k\u0131rm\u0131z\u0131": 4130,
  "\u2581temel": 4131,
  "\u2581girdi": 4132,
  "\u2581sorunu": 4133,
  "\u2581arms": 4134,
  "\u2581salak": 4135,
  "\u2581bay\u0131m": 4136,
  "\u2581prepared": 4137,
  "\u2581\u00e7\u0131kart": 4138,
  "\u2581treat": 4139,
  "\u2581leg": 4140,
  "\u2581closer": 4141,
  "duk": 4142,
  "\u2581Za": 4143,
  "\u2581biliyorsunuz": 4144,
  "\u2581Cidden": 4145,
  "\u2581bask\u0131": 4146,
  "\u2581\u00f6zellikle": 4147,
  "\u2581ho\u015fum": 4148,
  "\u2581giy": 4149,
  "\u2581suit": 4150,
  "\u2581alt\u0131n": 4151,
  "\u2581angels": 4152,
  "\u2581conversation": 4153,
  "\u2581T\u0131pk\u0131": 4154,
  "\u2581sal": 4155,
  "\u2581Sol": 4156,
  "\u2581Doesn": 4157,
  "di\u011fim": 4158,
  "\u2581buydu": 4159,
  "li\u011fini": 4160,
  "\u2581lay": 4161,
  "t\u00fcr": 4162,
  "\u2581ruh": 4163,
  "\u2581d\u00fc\u015f\u00fcnme": 4164,
  "\u2581wondering": 4165,
  "`": 4166,
  "ebilecek": 4167,
  "mdan": 4168,
  "\u2581Pe": 4169,
  "\u2581neck": 4170,
  "\u2581kimseyi": 4171,
  "that": 4172,
  "well": 4173,
  "\u2581Alt\u0131": 4174,
  "\u2581dil": 4175,
  "\u2581hadn": 4176,
  "\u2581yaz\u0131yor": 4177,
  "\u2581deserve": 4178,
  "\u2581Dar": 4179,
  "\u2581Dikkatli": 4180,
  "\u2581\u00d6zellikle": 4181,
  "\u2581empty": 4182,
  "ig": 4183,
  "\u2581Mer": 4184,
  "\u2581Joseph": 4185,
  "\u2581orospu": 4186,
  "l\u0131\u011f\u0131n": 4187,
  "\u2581South": 4188,
  "\u2581bela": 4189,
  "\u2581s\u0131n\u0131f": 4190,
  "\u2581whoa": 4191,
  "\u2581Konu": 4192,
  "\u2581banka": 4193,
  "\u2581Aren": 4194,
  "\u2581iyice": 4195,
  "\u2581ok": 4196,
  "\u2581evinde": 4197,
  "\u2581guidance": 4198,
  "\u2581fe": 4199,
  "\u2581demi\u015fti": 4200,
  "\u2581s\u00f6yleyecek": 4201,
  "IN": 4202,
  "\u2581Oda": 4203,
  "\u2581raised": 4204,
  "\u2581Sun": 4205,
  "\u2581strength": 4206,
  "\u2581tutun": 4207,
  "\u2581kendim": 4208,
  "\u2581\u00d6l\u00fcm": 4209,
  "\u2581tepki": 4210,
  "\u2581Hani": 4211,
  "\u2581nature": 4212,
  "\u2581Hepsini": 4213,
  "bye": 4214,
  "\u2581Jackson": 4215,
  "m\u00fc\u015f": 4216,
  "\u2581Wi": 4217,
  "ng": 4218,
  "\u2581halinde": 4219,
  "\u00fcyor": 4220,
  "dar": 4221,
  "\u2581powerful": 4222,
  "\u2581getirdi": 4223,
  "inizi": 4224,
  "\u2581everywhere": 4225,
  "\u2581s\u00f6z\u00fc": 4226,
  "\u2581500": 4227,
  "\u2581received": 4228,
  "\u2581bol": 4229,
  "\u2581bother": 4230,
  "\u2581weapons": 4231,
  "\u2581\u015feker": 4232,
  "X": 4233,
  "iyet": 4234,
  "\u2581necessary": 4235,
  "\u2581sekiz": 4236,
  "\u0131n\u0131z": 4237,
  "\u2581battle": 4238,
  "\u2581mant\u0131kl\u0131": 4239,
  "\u2581annesi": 4240,
  "\u2581yan\u0131mda": 4241,
  "ino": 4242,
  "\u2581\u00e7al": 4243,
  "\u2581rain": 4244,
  "\u2581Lucy": 4245,
  "\u2581weekend": 4246,
  "\u2581Jean": 4247,
  "\u2581apa\u00e7\u0131k": 4248,
  "\u2581project": 4249,
  "\u2581ge\u00e7iyor": 4250,
  "\u2581nose": 4251,
  "\u2581se\u00e7": 4252,
  "rd": 4253,
  "una": 4254,
  "mez": 4255,
  "\u2581ki\u015fisel": 4256,
  "\u2581opportunity": 4257,
  "\u2581\u015f\u00fcphesiz": 4258,
  "\u2581gotten": 4259,
  "\u2581Deli": 4260,
  "\u201d": 4261,
  "nize": 4262,
  "\u2581hakl\u0131s\u0131n": 4263,
  "\u2581ihtiya\u00e7": 4264,
  "\u2581dirty": 4265,
  "\u2581\u00e7al\u0131\u015fmak": 4266,
  "\u2581\u015f\u00fcpheli": 4267,
  "ise": 4268,
  "\u2581chief": 4269,
  "\u2581gelmez": 4270,
  "\u2581Top": 4271,
  "che": 4272,
  "\u2581post": 4273,
  "\u2581Nathan": 4274,
  "\u2581y\u0131llar": 4275,
  "li\u011fin": 4276,
  "\u2581oyna": 4277,
  "\u2581matters": 4278,
  "\u2581nervous": 4279,
  "\u2581fresh": 4280,
  "\u2581ka": 4281,
  "\u2581Joey": 4282,
  "\u2581ya\u015f": 4283,
  "\u2581Kosovo": 4284,
  "\u2581iz": 4285,
  "\u2581ediyorlar": 4286,
  "\u2581iptal": 4287,
  "\u2581Bul": 4288,
  "\u2581s\u00f6yleyin": 4289,
  "\u2581Abby": 4290,
  "\u2581rule": 4291,
  "\u2581pis": 4292,
  "\u00fd": 4293,
  "\u2581ah": 4294,
  "\u2581\u00f6ld\u00fcr": 4295,
  "rak": 4296,
  "\u2581\u00e7evre": 4297,
  "\u2581seemed": 4298,
  "con": 4299,
  "\u2581ABD": 4300,
  "\u2581beyond": 4301,
  "\u2581ak\u0131l": 4302,
  "\u2581Je": 4303,
  "\u2581Telefon": 4304,
  "\u2581zamana": 4305,
  "\u2581han\u0131mefendi": 4306,
  "\u2581arkas\u0131nda": 4307,
  "\u2581Konu\u015f": 4308,
  "\u2581rapor": 4309,
  "\u2581adamla": 4310,
  "\u2581belongs": 4311,
  "\u2581geleni": 4312,
  "\u2581sold": 4313,
  "\u2581lab": 4314,
  "d\u0131\u011f\u0131n": 4315,
  "\u2581ada": 4316,
  "\u2581oldu\u011funuzu": 4317,
  "\u2581\u00f6\u011f\u00fct": 4318,
  "lanma": 4319,
  "\u2581delil": 4320,
  "\u2581legs": 4321,
  "\u2581sahte": 4322,
  "That": 4323,
  "\u2581edilmi\u015f": 4324,
  "\u2581toplant\u0131": 4325,
  "\u2581Buradaki": 4326,
  "\u2581keeps": 4327,
  "\u2581bal\u0131k": 4328,
  "\u2581saatte": 4329,
  "\u2581ba\u015fa": 4330,
  "\u2581Y\u00fczba\u015f\u0131": 4331,
  "\u2581warm": 4332,
  "ville": 4333,
  "\u2581hero": 4334,
  "\u2581burn": 4335,
  "\u2581Ru": 4336,
  "\u2581ay\u0131": 4337,
  "\u2581\u00fcyesi": 4338,
  "\u2581credit": 4339,
  "lay\u0131p": 4340,
  "\u2581acting": 4341,
  "\u2581Olay": 4342,
  "\u2581justice": 4343,
  "11": 4344,
  "layacak": 4345,
  "miyorum": 4346,
  "ju": 4347,
  "\u2581din": 4348,
  "\u2581losing": 4349,
  "\u2581As\u0131l": 4350,
  "\u2581Ge": 4351,
  "tra": 4352,
  "\u2581ki\u015filer": 4353,
  "\u2581Except": 4354,
  "\u2581main": 4355,
  "\u2581language": 4356,
  "jo": 4357,
  "\u2581olmu\u015ftu": 4358,
  "My": 4359,
  "\u2581ki\u015fiyi": 4360,
  "\u2581investigation": 4361,
  "\u2581anlam\u0131yorum": 4362,
  "\u2581ilgi": 4363,
  "\u2581azab\u0131": 4364,
  "\u2581belong": 4365,
  "\u2581arad\u0131": 4366,
  "\u2581getirin": 4367,
  "\u2581\u00e7ekici": 4368,
  "\u2581askeri": 4369,
  "am\u0131yorum": 4370,
  "\u2581Bunlar\u0131n": 4371,
  "\u2581dik": 4372,
  "ser": 4373,
  "\u2581verilen": 4374,
  "\u2581ba\u015fkan\u0131": 4375,
  "\u2581muydun": 4376,
  "ent": 4377,
  "\u2581\u00c7in": 4378,
  "\u2581members": 4379,
  "\u2581konu\u015fuyor": 4380,
  "\u2581kals\u0131n": 4381,
  "\u2581do\u011fal": 4382,
  "\u2581simply": 4383,
  "lanan": 4384,
  "\u2581hello": 4385,
  "\u2581member": 4386,
  "\u2581Beyaz": 4387,
  "bra": 4388,
  "\u2581\u00f6yleyse": 4389,
  "\u2581elbise": 4390,
  "\u2581laugh": 4391,
  "\u2581pulled": 4392,
  "\u2581obviously": 4393,
  "\u2581mektup": 4394,
  "\u2581verily": 4395,
  "\u2581draw": 4396,
  "\u2581hakk\u0131": 4397,
  "\u2581issue": 4398,
  "av": 4399,
  "t\u0131k": 4400,
  "\u2581Arka": 4401,
  "\u2581bo\u015fa": 4402,
  "\u2581Bil": 4403,
  "\u2581Annen": 4404,
  "\u2581returned": 4405,
  "abilirsiniz": 4406,
  "\u2581sa\u00e7": 4407,
  "\u2581\u00fcst\u00fcn": 4408,
  "\u2581G\u00fcvenlik": 4409,
  "\u2581Anlad\u0131n": 4410,
  "\u2581istedi\u011fimi": 4411,
  "\u2581g\u00f6steri": 4412,
  "\u2581London": 4413,
  "\u2581gitti\u011fini": 4414,
  "\u2581nokta": 4415,
  "\u2581say\u0131lmaz": 4416,
  "\u2581client": 4417,
  "\u2581geni\u015f": 4418,
  "\u2581umurumda": 4419,
  "but": 4420,
  "\u2581Ross": 4421,
  "\u2581ba": 4422,
  "\u2581crew": 4423,
  "lu\u011fu": 4424,
  "\u2581Shall": 4425,
  "\u2581Tamamen": 4426,
  "\u2581inan\u0131yorum": 4427,
  "field": 4428,
  "\u2581ilgilen": 4429,
  "\u2581receive": 4430,
  "\u2581k\u00f6r": 4431,
  "\u2581upstairs": 4432,
  "\u2581ula\u015f": 4433,
  "ite": 4434,
  "\u2581hapse": 4435,
  "\u258128": 4436,
  "\u2581gerekirse": 4437,
  "\u2581ho": 4438,
  "\u2581edersin": 4439,
  "\u2581olabilirsin": 4440,
  "\u2581lied": 4441,
  "\u2581pi": 4442,
  "rken": 4443,
  "\u2581hari\u00e7": 4444,
  "\u2581IN": 4445,
  "\u2581Ten": 4446,
  "rt": 4447,
  "\u2581goddamn": 4448,
  "\u2581A\u00e7\u0131k": 4449,
  "ex": 4450,
  "\u2581\u0130ngilizce": 4451,
  "\u2581animal": 4452,
  "\u2581ta\u015f\u0131": 4453,
  "\u2581\u015feytan": 4454,
  "\u2581natural": 4455,
  "\u2581Kimin": 4456,
  "\u2581Kelly": 4457,
  "\u2581anlad\u0131n": 4458,
  "\u2581Besides": 4459,
  "\u2581kitchen": 4460,
  "AL": 4461,
  "\u2581Sounds": 4462,
  "\u2581karde\u015fi": 4463,
  "\u2581therein": 4464,
  "\u2581Up": 4465,
  "\u2581Olduk\u00e7a": 4466,
  "\u2581Papa": 4467,
  "\u2581uncle": 4468,
  "\u2581y\u00fcr\u00fc": 4469,
  "\u2581umut": 4470,
  "\u2581data": 4471,
  "\u2581net": 4472,
  "\u2581Oyun": 4473,
  "\u2581kurtarmak": 4474,
  "\u2581super": 4475,
  "\u2581crying": 4476,
  "\u2581zorunday\u0131z": 4477,
  "d\u0131\u011f\u0131m\u0131z": 4478,
  "\u2581captain": 4479,
  "\u2581fazlas\u0131n\u0131": 4480,
  "\u2581Turkey": 4481,
  "\u2581mankind": 4482,
  "\u2581US": 4483,
  "\u2581arrived": 4484,
  "yd\u0131m": 4485,
  "\u2581walked": 4486,
  "\u2581bilen": 4487,
  "\u2581Herhangi": 4488,
  "\u2581sinir": 4489,
  "\u2581sonu\u00e7": 4490,
  "\u2581ar\u0131yorum": 4491,
  "\u2581Evde": 4492,
  "\u2581former": 4493,
  "sha": 4494,
  "\u2581prayer": 4495,
  "\u2581Hayat\u0131m": 4496,
  "\u2581Kap\u0131y\u0131": 4497,
  "\u2581political": 4498,
  "\u2581band": 4499,
  "\u2581Probably": 4500,
  "\u2581clearly": 4501,
  "\u2581yatak": 4502,
  "\u2581asshole": 4503,
  "\u2581olmuyor": 4504,
  "Ma": 4505,
  "\u2581None": 4506,
  "mam": 4507,
  "\u258127": 4508,
  "\u2581olabilece\u011fini": 4509,
  "\u2581pizza": 4510,
  "\u2581selam": 4511,
  "\u2581flight": 4512,
  "\u2581Mel": 4513,
  "\u2581caused": 4514,
  "\u2581research": 4515,
  "ski": 4516,
  "\u2581yar\u0131m": 4517,
  "\u2581social": 4518,
  "\u2581kilo": 4519,
  "\u2581idare": 4520,
  "zu": 4521,
  "acakt\u0131r": 4522,
  "\u2581pray": 4523,
  "\u2581G\u00f6z": 4524,
  "\u2581agent": 4525,
  "\u2581desire": 4526,
  "\u2581Par": 4527,
  "\u2581Bal": 4528,
  "\u2581career": 4529,
  "\u2581Eh": 4530,
  "\u2581s\u00f6ylediler": 4531,
  "\u2581Col": 4532,
  "\u2581Kalk": 4533,
  "\u2581vermi\u015f": 4534,
  "val": 4535,
  "\u2581\u0130nsanlar\u0131n": 4536,
  "\u2581shooting": 4537,
  "\u2581yat": 4538,
  "\u2581aptalca": 4539,
  "\u2581edilen": 4540,
  "\u2581Londra": 4541,
  "\u2581ya\u015fa": 4542,
  "\u2581iste": 4543,
  "\u2581anti": 4544,
  "\u2581sanm\u0131\u015ft\u0131m": 4545,
  "\u2581d\u00fc\u015ft\u00fc": 4546,
  "\u2581IS": 4547,
  "\u2581suddenly": 4548,
  "\u2581speed": 4549,
  "\u2581yak": 4550,
  "\u2581greatest": 4551,
  "Name": 4552,
  "\u2581especially": 4553,
  "\u2581\u015farap": 4554,
  "\u2581Young": 4555,
  "\u2581ederek": 4556,
  "\u2581Neyin": 4557,
  "\u2581g\u00f6rd\u00fc": 4558,
  "\u2581erkekler": 4559,
  "\u2581opened": 4560,
  "\u2581\u0130ngiliz": 4561,
  "\u2581bak\u0131\u015f": 4562,
  "\u2581failed": 4563,
  "\u2581tight": 4564,
  "\u2581\u00e7aba": 4565,
  "\u2581murdered": 4566,
  "\u2581breath": 4567,
  "ilmi\u015f": 4568,
  "\u2581Yet": 4569,
  "\u2581Doug": 4570,
  "\u2581including": 4571,
  "\u2581bodies": 4572,
  "\u2581Sabah": 4573,
  "\u2581endi\u015fe": 4574,
  "\u2581firm": 4575,
  "\u2581base": 4576,
  "\u2581imza": 4577,
  "\u2581toplum": 4578,
  "\u2581North": 4579,
  "\u2581grand": 4580,
  "\u2581feed": 4581,
  "\u2581knowing": 4582,
  "\u2581cehenneme": 4583,
  "\u2581Josh": 4584,
  "\u2581term": 4585,
  "\u2581adamlar\u0131": 4586,
  "\u2581getirir": 4587,
  "\u2581Sch": 4588,
  "\u2581dis": 4589,
  "\u2581Europe": 4590,
  "\u2581yar\u0131": 4591,
  "\u2581istersin": 4592,
  "\u2581ince": 4593,
  "\u2581s\u00fcredir": 4594,
  "\u2581Tri": 4595,
  "ism": 4596,
  "emez": 4597,
  "\u2581Cevap": 4598,
  "\u0131nca": 4599,
  "\u258126": 4600,
  "\u2581yar\u0131\u015f": 4601,
  "\u2581fuckin": 4602,
  "\u2581leaves": 4603,
  "\u2581Plan": 4604,
  "\u2581O\u011flum": 4605,
  "\u2581masum": 4606,
  "\u2581Bebek": 4607,
  "\u2581beyin": 4608,
  "\u2581tutmak": 4609,
  "ris": 4610,
  "\u2581Sahi": 4611,
  "\u2581sons": 4612,
  "\u2581Min": 4613,
  "\u2581kutsal": 4614,
  "\u2581guns": 4615,
  "\u2581\u0301": 4616,
  "\u2581community": 4617,
  "\u2581foto\u011fraf": 4618,
  "\u2581condition": 4619,
  "20": 4620,
  "\u2581atma": 4621,
  "\u2581bekleme": 4622,
  "\u2581stories": 4623,
  "\u00dc": 4624,
  "\u2581ter": 4625,
  "\u2581keys": 4626,
  "\u2581ayr\u0131l": 4627,
  "\u2581survive": 4628,
  "lar\u0131n\u0131z": 4629,
  "\u2581deneme": 4630,
  "\u2581Sizinle": 4631,
  "!\u201d": 4632,
  "\u2581G\u00fcney": 4633,
  "\u2581g\u00f6r": 4634,
  "\u2581nation": 4635,
  "\u2581Rick": 4636,
  "\u2581bloody": 4637,
  "\u2581fan": 4638,
  "\u2581s\u00fcper": 4639,
  "\u2581yalanc\u0131": 4640,
  "\u2581\u00f6n\u00fcne": 4641,
  "\u2581\u00fc\u00e7\u00fcnc\u00fc": 4642,
  "\u2581\u00e7izgi": 4643,
  "\u2581edebilirim": 4644,
  "\u2581\u00f6nemi": 4645,
  "\u2581ak\u0131ll\u0131": 4646,
  "\u2581miydin": 4647,
  "\u2581\u00d6l\u00fc": 4648,
  "\u2581Ready": 4649,
  "II": 4650,
  "\u2581bilmiyorsun": 4651,
  "\u2581Hank": 4652,
  "\u2581asleep": 4653,
  "\u2581Kap\u0131": 4654,
  "\u2581stars": 4655,
  "\u2581island": 4656,
  "\u2581kadar\u0131yla": 4657,
  "\u2581sistemi": 4658,
  "\u2581bar\u0131\u015f": 4659,
  "\u2581practice": 4660,
  "\u2581d\u00f6n\u00fc\u015f": 4661,
  "\u2581Jan": 4662,
  "\u2581plus": 4663,
  "\u2581ridiculous": 4664,
  "ance": 4665,
  "\u2581telefonu": 4666,
  "\u2581High": 4667,
  "\u2581devre": 4668,
  "\u2581m\u0131y\u0131z": 4669,
  "\u2581Fe": 4670,
  "\u2581Taylor": 4671,
  "\u2581devlet": 4672,
  "\u2581According": 4673,
  "\u2581oil": 4674,
  "\u2581knife": 4675,
  "\u2581vazge\u00e7": 4676,
  "\u2581inanma": 4677,
  "\u2581Ask": 4678,
  "\u2581yap\u0131n": 4679,
  "\u2581e\u015fit": 4680,
  "\u2581Uyan": 4681,
  "\u2581y\u0131ld\u0131z": 4682,
  "\u2581Yaln\u0131zca": 4683,
  "\u2581apologize": 4684,
  "\u2581Hang": 4685,
  "\u2581\u00e7\u0131k\u0131\u015f": 4686,
  "\u2581Karen": 4687,
  "\u2581Neye": 4688,
  "\u2581veririm": 4689,
  "\u2581kat\u0131l": 4690,
  "\u2581muyum": 4691,
  "\u2581Lady": 4692,
  "\u2581neyi": 4693,
  "\u2581tan\u0131ma": 4694,
  "\u2581heavy": 4695,
  "\u2581girecek": 4696,
  "\u2581Onlardan": 4697,
  "\u2581Julia": 4698,
  "\u2581oldu\u011fumuz": 4699,
  "\u2581bottle": 4700,
  "\u2581Lily": 4701,
  "\u2581sap": 4702,
  "\u2581Verily": 4703,
  "\u2581heads": 4704,
  "\u2581Anlat": 4705,
  "\u2581alarm": 4706,
  "\u2581Bas": 4707,
  "\u2581kedi": 4708,
  "\u2581s\u0131r": 4709,
  "\u2581Green": 4710,
  "\u2581\u00f6zg\u00fcr": 4711,
  "\u2581While": 4712,
  "lt": 4713,
  "ier": 4714,
  "\u2581G\u00fcne\u015f": 4715,
  "ass": 4716,
  "\u2581alright": 4717,
  "\u2581bottom": 4718,
  "\u2581Cu": 4719,
  "ated": 4720,
  "\u2581savunma": 4721,
  "\u2581olsam": 4722,
  "\u2581training": 4723,
  "\u2581\u00f6ld\u00fcrmeye": 4724,
  "\u2581Street": 4725,
  "\u0131l\u0131r": 4726,
  "\u2581ce": 4727,
  "\u2581weight": 4728,
  "berg": 4729,
  "\u2581hat\u0131rla": 4730,
  "\u2581elini": 4731,
  "bel": 4732,
  "\u2581hamile": 4733,
  "\u2581d\u00fcnyaya": 4734,
  "\u2581etmem": 4735,
  "\u2581lock": 4736,
  "\u2581yar\u0131s\u0131": 4737,
  "\u2581\u00e7ay": 4738,
  "\u2581checked": 4739,
  "\u2581recognize": 4740,
  "\u2581cast": 4741,
  "\u00fcz": 4742,
  "ette": 4743,
  "\u2581bringing": 4744,
  "\u2581me\u015fgul": 4745,
  "\u2581odas\u0131nda": 4746,
  "\u2581etti\u011fim": 4747,
  "\u2581her\u015fey": 4748,
  "\u2581corner": 4749,
  "nd": 4750,
  "\u2581\u00fcnl\u00fc": 4751,
  "\u2581ila\u00e7": 4752,
  "\u2581ya\u011fmur": 4753,
  "\u2581Star": 4754,
  "\u2581de\u011fildim": 4755,
  "yon": 4756,
  "\u2581brings": 4757,
  "larsa": 4758,
  "\u2581science": 4759,
  "\u2581van": 4760,
  "\u2581karde\u015f": 4761,
  "\u2581pa": 4762,
  "\u2581Find": 4763,
  "\u2581Such": 4764,
  "\u2581planning": 4765,
  "\u2581Kabul": 4766,
  "\u2581g\u00f6sterir": 4767,
  "io": 4768,
  "\u2581awful": 4769,
  "oh": 4770,
  "\u2581Parti": 4771,
  "\u2581k\u0131l": 4772,
  "\u2581Trust": 4773,
  "Hey": 4774,
  "\u2581Fred": 4775,
  "\u2581Sessiz": 4776,
  "\u2581yap\u0131p": 4777,
  "\u2581German": 4778,
  "\u2581getirme": 4779,
  "\u2581Four": 4780,
  "\u2581metal": 4781,
  "\u2581fill": 4782,
  "\u2581modern": 4783,
  "\u2581Until": 4784,
  "\u2581itaat": 4785,
  "\u2581led": 4786,
  "\u2581Eskiden": 4787,
  "\u2581Maggie": 4788,
  "y\u0131n": 4789,
  "\u2581proof": 4790,
  "\u2581suyu": 4791,
  "\u2581fahi\u015fe": 4792,
  "\u2581kendisini": 4793,
  "\u2581b\u0131rakt\u0131": 4794,
  "\u2581alay\u0131m": 4795,
  "\u2581S\u0131rbistan": 4796,
  "\u2581s\u00fcrpriz": 4797,
  "\u2581diyece\u011fim": 4798,
  "\u2581guide": 4799,
  "emezsin": 4800,
  "\u2581ak\u015famlar": 4801,
  "\u2581Congratulations": 4802,
  "\u2581okuma": 4803,
  "\u2581travel": 4804,
  "\u2581tape": 4805,
  "\u2581mail": 4806,
  "\u0131ndan": 4807,
  "lay": 4808,
  "\u2581ba\u015far": 4809,
  "\u2581total": 4810,
  "\u2581Better": 4811,
  "\u2581i\u015ften": 4812,
  "\u2581note": 4813,
  "\u2581breakfast": 4814,
  "\u2581likely": 4815,
  "\u2581yasak": 4816,
  "\u2581Rabbim": 4817,
  "\u2581property": 4818,
  "\u2581%1": 4819,
  "\u2581program\u0131": 4820,
  "bil": 4821,
  "\u2581koru": 4822,
  "par": 4823,
  "\u2581edici": 4824,
  "\u2581emergency": 4825,
  "\u2581k\u0131zg\u0131n": 4826,
  "\u2581agreed": 4827,
  "\u2581buradas\u0131n": 4828,
  "bin": 4829,
  "y\u00fc": 4830,
  "\u2581dahi": 4831,
  "\u2581Goodbye": 4832,
  "\u2581kendin": 4833,
  "\u2581pants": 4834,
  "\u2581camp": 4835,
  "\u2581bay": 4836,
  "\u2581speech": 4837,
  "\u2581Angeles": 4838,
  "\u2581righteous": 4839,
  "\u2581Andrew": 4840,
  "50": 4841,
  "\u2581besides": 4842,
  "\u2581daire": 4843,
  "\u2581Zavall\u0131": 4844,
  "\u2581discuss": 4845,
  "\u2581iyiydi": 4846,
  "\u2581izni": 4847,
  "\u2581uyku": 4848,
  "\u2581canavar": 4849,
  "\u2581yazar": 4850,
  "\u2581Pu": 4851,
  "\u2581g\u00f6r\u00fc\u015fme": 4852,
  "ph": 4853,
  "tro": 4854,
  "\u2581i\u00e7indeki": 4855,
  "\u2581\u015feylerin": 4856,
  "mize": 4857,
  "\u2581ME": 4858,
  "m\u0131yorsun": 4859,
  "\u2581awesome": 4860,
  "\u2581Morgan": 4861,
  "\u2581taraf": 4862,
  "\u2581Victor": 4863,
  "\u2581arrested": 4864,
  "\u2581Hay": 4865,
  "\u2581bullshit": 4866,
  "ford": 4867,
  "\u2581eh": 4868,
  "\u2581realized": 4869,
  "\u2581\u015fansl\u0131": 4870,
  "\u2581anl\u0131yor": 4871,
  "\u2581ederler": 4872,
  "\u2581loss": 4873,
  "\u2581okula": 4874,
  "\u2581Hayatta": 4875,
  "\u2581ya\u011f": 4876,
  "lenmi\u015f": 4877,
  "\u2581\u00d6n": 4878,
  "De": 4879,
  "\u2581Dalga": 4880,
  "\u2581Rabbinin": 4881,
  "\u2581umar\u0131m": 4882,
  "\u2581stage": 4883,
  "\u2581zamandan": 4884,
  "\u2581epey": 4885,
  "\u2581va": 4886,
  "\u2581\u00e7\u0131karmak": 4887,
  "\u2581u": 4888,
  "9": 4889,
  "\u2581Roma": 4890,
  "\u2581y\u00fcz\u00fcn\u00fc": 4891,
  "\u2581kayna\u011f\u0131": 4892,
  "\u2581spor": 4893,
  "\u2581spread": 4894,
  "\u2581yerlerde": 4895,
  "\u2581faces": 4896,
  "\u2581D\u0131\u015far\u0131da": 4897,
  "\u2581Ak\u015fam": 4898,
  "\u2581William": 4899,
  "\u2581meat": 4900,
  "gin": 4901,
  "\u2581river": 4902,
  "\u2581Kay": 4903,
  "\u2581d\u00fczg\u00fcn": 4904,
  "\u2581etmiyor": 4905,
  "ndeki": 4906,
  "Tamam": 4907,
  "\u2581filmi": 4908,
  "\u2581dokunma": 4909,
  "\u2581fucked": 4910,
  "\u2581Tebrikler": 4911,
  "AR": 4912,
  "\u2581oku": 4913,
  "\u2581olduklar\u0131": 4914,
  "\u2581prefer": 4915,
  "\u2581value": 4916,
  "\u2581buz": 4917,
  "\u2581Ad": 4918,
  "\u2581i\u015fine": 4919,
  "ilen": 4920,
  "\u2581vermeye": 4921,
  "\u2581weak": 4922,
  "\u2581dropped": 4923,
  "gel": 4924,
  "\u2581herkese": 4925,
  "\u2581edece\u011fiz": 4926,
  "\u2581East": 4927,
  "\u2581Rabbin": 4928,
  "\u2581Gitme": 4929,
  "\u2581yery\u00fcz\u00fcnde": 4930,
  "\u2581sevdi\u011fim": 4931,
  "\u2581oturup": 4932,
  "\u2581yumurta": 4933,
  "\u2581y\u0131ll\u0131k": 4934,
  "\u2581expected": 4935,
  "\u2581period": 4936,
  "lan\u0131yor": 4937,
  "\u2581e\u011flence": 4938,
  "\u2581sev": 4939,
  "bet": 4940,
  "\u2581focus": 4941,
  "\u2581daddy": 4942,
  "\u2581con": 4943,
  "\u2581imkans\u0131z": 4944,
  "\u2581ku\u015f": 4945,
  "\u2581Hall": 4946,
  "\u2581photo": 4947,
  "\u2581bro": 4948,
  "\u2581Jesse": 4949,
  "\u2581d\u00f6nmek": 4950,
  "\u2581Absolutely": 4951,
  "\u2581zaman\u0131nda": 4952,
  "\u2581sonucu": 4953,
  "\u2581records": 4954,
  "\u2581student": 4955,
  "\u2581Bra": 4956,
  "\u0131lan": 4957,
  "\u2581Mukaddes": 4958,
  "\u2581heyecan": 4959,
  "yal\u0131m": 4960,
  "\u2581turning": 4961,
  "\u2581State": 4962,
  "\u0131n\u0131n": 4963,
  "\u2581fellow": 4964,
  "\u2581easier": 4965,
  "\u2581color": 4966,
  "\u2581k\u0131sm\u0131n\u0131": 4967,
  "\u2581birer": 4968,
  "\u2581konu\u015fabilir": 4969,
  "\u2581fazlas\u0131": 4970,
  "\u2581Bat\u0131": 4971,
  "\u2581Endi\u015felenme": 4972,
  "\u2581\u00fczerinden": 4973,
  "ban": 4974,
  "\u2581s\u00f6ylemi\u015f": 4975,
  "\u2581merhaba": 4976,
  "\u2581konuyu": 4977,
  "\u2581\u00f6fke": 4978,
  "\u2581Zi": 4979,
  "\u2581damage": 4980,
  "\u2581\u00e7evir": 4981,
  "\u2581Kosova": 4982,
  "\u2581izi": 4983,
  "\u2581\u015fans\u0131": 4984,
  "\u2581Jackie": 4985,
  "\u2581300": 4986,
  "\u2581Gary": 4987,
  "\u2581based": 4988,
  "\u2581sonuna": 4989,
  "\u2581idi": 4990,
  "\u2581cinsel": 4991,
  "\u2581Beyler": 4992,
  "\u2581Elizabeth": 4993,
  "\u2581teknoloji": 4994,
  "15": 4995,
  "\u2581hanging": 4996,
  "\u2581Bakal\u0131m": 4997,
  "\u2581herkesi": 4998,
  "\u2581buradaki": 4999,
  "\u2581Annie": 5000,
  "\u2581domuz": 5001,
  "muz": 5002,
  "\u2581konu\u015fmaya": 5003,
  "\u2581older": 5004,
  "\u2581Talk": 5005,
  "\u2581dosya": 5006,
  "\u2581target": 5007,
  "\u258145": 5008,
  "\u2581emri": 5009,
  "\u2581leader": 5010,
  "\u2581concerned": 5011,
  "\u2581se\u00e7me": 5012,
  "\u2581Sevgili": 5013,
  "\u2581Gen\u00e7": 5014,
  "ft": 5015,
  "\u2581cars": 5016,
  "\u2581biriydi": 5017,
  "\u2581Roman": 5018,
  "\u2581ailesi": 5019,
  "\u2581birth": 5020,
  "\u2581ideas": 5021,
  "\u2581\u015feylere": 5022,
  "\u2581inan\u0131yor": 5023,
  "\u2581neye": 5024,
  "\u2581Unless": 5025,
  "\u2581Gri": 5026,
  "ee": 5027,
  "\u2581s\u00f6yleyen": 5028,
  "\u2581dumb": 5029,
  "\u2581g\u00f6rd\u00fc\u011f\u00fcm": 5030,
  "meyi": 5031,
  "\u2581trick": 5032,
  "\u2581evli": 5033,
  "\u2581\u00f6\u011frenci": 5034,
  "\u2581\u00e7ekin": 5035,
  "\u2581Julie": 5036,
  "\u2581changes": 5037,
  "\u2581saf": 5038,
  "\u2581Bebe\u011fim": 5039,
  "\u2581getirmek": 5040,
  "\u2581tan\u0131k": 5041,
  "ED": 5042,
  "\u2581excited": 5043,
  "\u2581S\u00fcrekli": 5044,
  "\u2581\u0130kimiz": 5045,
  "\u2581therefore": 5046,
  "\u2581add": 5047,
  "\u2581bird": 5048,
  "mas\u0131na": 5049,
  "ita": 5050,
  "\u2581ortas\u0131nda": 5051,
  "\u2581yapman": 5052,
  "\u2581istedin": 5053,
  "\u2581provide": 5054,
  "\u2581Film": 5055,
  "\u2581\u0130zin": 5056,
  "\u2581driver": 5057,
  "\u2581sevdim": 5058,
  "\u2581w": 5059,
  "\u2581non": 5060,
  "\u2581halk\u0131": 5061,
  "\u2581takdir": 5062,
  "\u2581Chicago": 5063,
  "\u2581kat\u0131": 5064,
  "How": 5065,
  "\u2581Santa": 5066,
  "\u2581ar\u0131yorsun": 5067,
  "\u2581u\u00e7": 5068,
  "\u2581\u015fanslar": 5069,
  "\u2581Gra": 5070,
  "\u2581konu\u015ftum": 5071,
  "kal": 5072,
  "\u2581etmesi": 5073,
  "\u2581\u00e7irkin": 5074,
  "\u2581boya": 5075,
  "\u2581\u00e7al\u0131\u015ft\u0131r": 5076,
  "\u2581\u015feylerden": 5077,
  "\u2581kon": 5078,
  "\u2581Vegas": 5079,
  "EN": 5080,
  "\u2581shirt": 5081,
  "\u2581hisse": 5082,
  "\u2581invited": 5083,
  "\u2581result": 5084,
  "\u2581Sara": 5085,
  "Be": 5086,
  "\u2581release": 5087,
  "\u2581ought": 5088,
  "Biz": 5089,
  "uh": 5090,
  "\u2581sorunun": 5091,
  "\u2581birinci": 5092,
  "\u2581ihanet": 5093,
  "\u2581\u0130brahim": 5094,
  "\u2581bakmak": 5095,
  "\u2581Silah": 5096,
  "\u2581bulmaya": 5097,
  "\u2581Guess": 5098,
  "\u2581ni": 5099,
  "\u2581Chloe": 5100,
  "\u2581Laura": 5101,
  "\u2581surgery": 5102,
  "\u2581games": 5103,
  "ydim": 5104,
  "\u2581servants": 5105,
  "ven": 5106,
  "\u2581\u00c7o\u011fu": 5107,
  "\u2581Hareket": 5108,
  "If": 5109,
  "\u2581paying": 5110,
  "\u2581pop": 5111,
  "\u2581sayfa": 5112,
  "\u2581yapt\u0131\u011f\u0131m\u0131z": 5113,
  "\u2581smile": 5114,
  "a\u011fa": 5115,
  "\u2581al\u0131r\u0131m": 5116,
  "\u2581folks": 5117,
  "\u2581bekliyorum": 5118,
  "\u2581kaybettim": 5119,
  "\u2581Down": 5120,
  "\u2581insan\u0131": 5121,
  "zer": 5122,
  "\u2581gelme": 5123,
  "Why": 5124,
  "\u2581text": 5125,
  "\u2581disbelieve": 5126,
  "\u2581kuru": 5127,
  "\u2581noticed": 5128,
  "\u2581kimsin": 5129,
  "\u2581yapt\u0131\u011f\u0131m\u0131": 5130,
  "\u2581\u015fi\u015fe": 5131,
  "\u2581mavi": 5132,
  "\u2581s\u00f6ylemem": 5133,
  "l\u0131\u011f\u0131n\u0131": 5134,
  "yor": 5135,
  "house": 5136,
  "\u2581fake": 5137,
  "\u2581ara\u015ft\u0131r": 5138,
  "\u2581si": 5139,
  "\u2581sik": 5140,
  "\u2581iyisini": 5141,
  "tter": 5142,
  "\u2581heat": 5143,
  "\u2581wild": 5144,
  "\u2581universe": 5145,
  "\u011fa": 5146,
  "\u2581ahbap": 5147,
  "\u2581girmek": 5148,
  "\u2581Orta": 5149,
  "\u2581bir\u015feyler": 5150,
  "\u2581dedektif": 5151,
  "\u2581demi\u015ftim": 5152,
  "\u2581rol": 5153,
  "\u2581Satan": 5154,
  "\u2581dry": 5155,
  "\u2581zavall\u0131": 5156,
  "\u2581ara\u00e7": 5157,
  "\u2581ge\u00e7irme": 5158,
  "\u2581torment": 5159,
  "\u2581d\u00fc\u015f": 5160,
  "\u2581zorla": 5161,
  "\u2581ended": 5162,
  "\u2581kamera": 5163,
  "\u2581hakk\u0131ndaki": 5164,
  "\u2581\u00e7\u00f6z\u00fcm": 5165,
  "\u2581kutu": 5166,
  "\u2581geriye": 5167,
  "\u2581CIA": 5168,
  "\u2581olmaktan": 5169,
  "\u2581sesini": 5170,
  "\u2581WE": 5171,
  "\u2581covered": 5172,
  "\u2581ill": 5173,
  "\u2581\u00f6d\u00fcl": 5174,
  "\u2581Nor": 5175,
  "\u2581ordu": 5176,
  "\u2581k\u00f6t\u00fcl\u00fck": 5177,
  "\u2581ba\u015far\u0131": 5178,
  "\u2581hayat\u0131n": 5179,
  "\u2581arzu": 5180,
  "\u2581\u015e\u00f6yle": 5181,
  "\u2581Helen": 5182,
  "\u2581Mama": 5183,
  "\u2581olacakt\u0131": 5184,
  "\u2581roll": 5185,
  "\u2581yapay\u0131m": 5186,
  "\u2581d\u00fc\u015f\u00fcnce": 5187,
  "\u2581T\u00fcrkiye": 5188,
  "\u2581olmasa": 5189,
  "\u2581sanat": 5190,
  "\u2581finding": 5191,
  "\u2581G\u00fcven": 5192,
  "\u2581Smith": 5193,
  "So": 5194,
  "\u2581av": 5195,
  "\u2581operation": 5196,
  "\u2581sa\u011fl\u0131k": 5197,
  "\u2581ta\u015f\u0131n": 5198,
  "\u2581\u00f6t\u00fcr\u00fc": 5199,
  "\u2581Deniz": 5200,
  "\u2581sakla": 5201,
  "\u2581Gelin": 5202,
  "\u2581Patrick": 5203,
  "\u2581available": 5204,
  "\u2581department": 5205,
  "\u2581signal": 5206,
  "\u2581Do\u011fu": 5207,
  "ildi": 5208,
  "zo": 5209,
  "\u2581Bart": 5210,
  "\u2581adil": 5211,
  "\u2581biliyordu": 5212,
  "\u2581percent": 5213,
  "\u2581proje": 5214,
  "\u2581\u00b6": 5215,
  "\u2581Life": 5216,
  "\u2581Yapamam": 5217,
  "maktad\u0131r": 5218,
  "\u2581reached": 5219,
  "\u2581s\u0131k\u0131nt\u0131": 5220,
  "\u2581motor": 5221,
  "lay\u0131n": 5222,
  "\u2581female": 5223,
  "\u2581Val": 5224,
  "\u2581Jacob": 5225,
  "\u2581bilmem": 5226,
  "l\u00e2": 5227,
  "\u2581Friday": 5228,
  "\u2581km": 5229,
  "\u2581g\u00f6nderdi": 5230,
  "\u2581Acaba": 5231,
  "\u2581starts": 5232,
  "\u2581halk": 5233,
  "\u2581parts": 5234,
  "\u2581chicken": 5235,
  "\u2581cases": 5236,
  "\u2581tan\u0131\u015f": 5237,
  "\u2581national": 5238,
  "LE": 5239,
  "\u2581ad\u0131nda": 5240,
  "\u2581kimi": 5241,
  "\u2581t\u0131pk\u0131": 5242,
  "mal\u0131s\u0131n\u0131z": 5243,
  "\u2581d\u00fcnyay\u0131": 5244,
  "\u2581Sunday": 5245,
  "\u2581duyma": 5246,
  "\u2581Sa\u011fol": 5247,
  "\u2581tarihi": 5248,
  "\u2581painful": 5249,
  "\u2581fikrin": 5250,
  "\u2581Yara": 5251,
  "0": 5252,
  "\u2581Kesin": 5253,
  "\u2581halt": 5254,
  "\u2581olursun": 5255,
  "lly": 5256,
  "ucu": 5257,
  "\u2581dick": 5258,
  "\u2581Muhammad": 5259,
  "\u2581g\u00fczeldi": 5260,
  "\u2581Abraham": 5261,
  "\u2581avoid": 5262,
  "\u2581ku": 5263,
  "\u2581Police": 5264,
  "ius": 5265,
  "\u2581evlen": 5266,
  "\u2581Eli": 5267,
  "\u2581\u0130kiniz": 5268,
  "\u2581letting": 5269,
  "\u2581plenty": 5270,
  "\u2581Y\u00fcce": 5271,
  "\u2581event": 5272,
  "\u2581statement": 5273,
  "\u2581evlilik": 5274,
  "\u2581pi\u00e7": 5275,
  "\u2581deliver": 5276,
  "\u2581Sende": 5277,
  "\u2581pool": 5278,
  "\u2581sand\u0131m": 5279,
  "\u2581vote": 5280,
  "\u2581famous": 5281,
  "\u2581copy": 5282,
  "\u2581sa": 5283,
  "\u2581Hayal": 5284,
  "\u2014": 5285,
  "\u2581Robin": 5286,
  "\u2581becer": 5287,
  "\u2581arad\u0131m": 5288,
  "\u2581\u00e7\u0131kacak": 5289,
  "\u2581kral": 5290,
  "\u2581kar\u0131s\u0131": 5291,
  "\u2581evin": 5292,
  "\u2581responsibility": 5293,
  "\u2581center": 5294,
  "lia": 5295,
  "\u2581Kendisi": 5296,
  "\u2581onto": 5297,
  "e\u011fi": 5298,
  "\u2581hik\u00e2ye": 5299,
  "\u2581Tan": 5300,
  "\u2581ters": 5301,
  "\u2581Ol": 5302,
  "\u2581exist": 5303,
  "\u2581suffer": 5304,
  "Me": 5305,
  "\u2581tutar": 5306,
  "iyle": 5307,
  "\u2581Molly": 5308,
  "\u2581arac\u0131": 5309,
  "\u2581greater": 5310,
  "\u2581Rabbiniz": 5311,
  "\u2581mentioned": 5312,
  "\u2581Ron": 5313,
  "\u2581g\u00f6rd\u00fcn\u00fcz": 5314,
  "\u2581ye\u015fil": 5315,
  "\u2581\u00f6z": 5316,
  "\u2581seyahat": 5317,
  "\u2581\u00f6\u011frendim": 5318,
  "\u2581dal": 5319,
  "\u2581\u0130\u00e7inde": 5320,
  "mesini": 5321,
  "sene": 5322,
  "\u2581kredi": 5323,
  "\u015fi": 5324,
  "\u2581peygamber": 5325,
  "12": 5326,
  "ence": 5327,
  "\u2581ba\u015ftan": 5328,
  "\u2581derken": 5329,
  "\u2581Serbia": 5330,
  "\u2581warn": 5331,
  "m\u00fc": 5332,
  "\u2581Without": 5333,
  "\u2581possibly": 5334,
  "aca\u011f\u0131": 5335,
  "\u2581topla": 5336,
  "\u2581lord": 5337,
  "\u2581nearly": 5338,
  "\u2581teeth": 5339,
  "\u2581permission": 5340,
  "\u2581\u0130ngiltere": 5341,
  "\u2581suggest": 5342,
  "\u2581s\u00f6yleyebilir": 5343,
  "\u2581Jay": 5344,
  "\u2581Sta": 5345,
  "\u2581\u00e7ekme": 5346,
  "\u2581afford": 5347,
  "\u2581orta": 5348,
  "\u2581Che": 5349,
  "\u2581Greg": 5350,
  "\u2581de\u011filler": 5351,
  "\u2581criminal": 5352,
  "\u2581Prophet": 5353,
  "\u2581tak\u0131m\u0131": 5354,
  "\u2581ge\u00e7er": 5355,
  "\u2581sub": 5356,
  "\u2581threw": 5357,
  "\u2581trade": 5358,
  "\u2581kilometre": 5359,
  "\u2581correct": 5360,
  "\u2581Herkesin": 5361,
  "\u2581randevu": 5362,
  "\u2581s\u0131n\u0131r": 5363,
  "asyon": 5364,
  "\u2581Baby": 5365,
  "\u2581legal": 5366,
  "\u2581sweetheart": 5367,
  "miyorsun": 5368,
  "\u2581g\u00f6ren": 5369,
  "\u2581Enough": 5370,
  "\u2581bakmay\u0131n": 5371,
  "\u2581sa\u00e7mal\u0131k": 5372,
  "\u2581shame": 5373,
  "\u2581kusur": 5374,
  "\u2581stayed": 5375,
  "\u2581sorma": 5376,
  "\u2581Oliver": 5377,
  "\u2581mucize": 5378,
  "\u2581yaparken": 5379,
  "\u2581olmu\u015ftur": 5380,
  "gg": 5381,
  "\u2581lights": 5382,
  "di\u011fin": 5383,
  "\u2581yahut": 5384,
  "\u2581d\u00f6n\u00fcyor": 5385,
  "\u2581uyu": 5386,
  "\u2581Ger": 5387,
  "ized": 5388,
  "\u2581s\u0131k\u0131c\u0131": 5389,
  "\u2581cup": 5390,
  "\u2581Frans\u0131z": 5391,
  "ice": 5392,
  "AN": 5393,
  "lay\u0131c\u0131": 5394,
  "lamak": 5395,
  "ble": 5396,
  "\u2581Gelecek": 5397,
  "\u2581vurdu": 5398,
  "\u2581kay": 5399,
  "\u2581students": 5400,
  "\u2581d\u00fc\u015f\u00fck": 5401,
  "\u2581\u00f6ylece": 5402,
  "\u2581alal\u0131m": 5403,
  "\u2581gerekmiyor": 5404,
  "\u2581victims": 5405,
  "\u2581Must": 5406,
  "\u2581kal\u0131r": 5407,
  "\u2581Tahmin": 5408,
  "\u2581Always": 5409,
  "amad\u0131m": 5410,
  "\u2581Kol": 5411,
  "\u2581diyorlar": 5412,
  "\u2581biggest": 5413,
  "\u2581yapabiliriz": 5414,
  "\u2581ka\u00e7t\u0131": 5415,
  "\u2581\u00e7al\u0131\u015f\u0131yoruz": 5416,
  "\u2581signed": 5417,
  "\u2581uyar\u0131": 5418,
  "\u2581yap\u0131": 5419,
  "\u2581Roy": 5420,
  "dor": 5421,
  "\u2581Marie": 5422,
  "ebiliriz": 5423,
  "\u2581bor\u00e7": 5424,
  "\u2581s\u0131radan": 5425,
  "\u2581France": 5426,
  "\u2581horrible": 5427,
  "\u2581\u00e7al\u0131\u015ft\u0131": 5428,
  "mem": 5429,
  "\u2581Peder": 5430,
  "\u2581yeme": 5431,
  "\u2581s\u00fcrd\u00fc": 5432,
  "\u2581gibisin": 5433,
  "\u2581k\u0131yamet": 5434,
  "\u2581opinion": 5435,
  "\u2581lots": 5436,
  "\u2581Tra": 5437,
  "\u2581endi\u015felenme": 5438,
  "\u2581s\u00f6ylemeye": 5439,
  "\u2581b\u0131rak\u0131r": 5440,
  "\u2581Cooper": 5441,
  "\u2581kart\u0131": 5442,
  "An": 5443,
  "\u2581split": 5444,
  "\u2581bulmu\u015f": 5445,
  "\u2581Fu": 5446,
  "\u2581bildi\u011fim": 5447,
  "\u2581Madam": 5448,
  "\u2581Brad": 5449,
  "\u2581WHAT": 5450,
  "\u2581mo": 5451,
  "ab": 5452,
  "\u2581ayr\u0131lma": 5453,
  "\u2581chair": 5454,
  "\u2581source": 5455,
  "\u2581Alman": 5456,
  "\u2581mahkeme": 5457,
  "\u2581etki": 5458,
  "l\u0131yorum": 5459,
  "\u2581yap\u0131yorlar": 5460,
  "\u2581restaurant": 5461,
  "\u2581zamanki": 5462,
  "\u2581subject": 5463,
  "\u2581Amanda": 5464,
  "\u2581ears": 5465,
  "i\u00e7": 5466,
  "\u2581pretend": 5467,
  "\u2581pack": 5468,
  "\u2581sosyal": 5469,
  "\u2581negative": 5470,
  "\u2581Ko\u015f": 5471,
  "\u2581Charlotte": 5472,
  "\u2581cesaret": 5473,
  "\u2581evlenme": 5474,
  "\u2581ba\u015f\u0131": 5475,
  "\u2581ibadet": 5476,
  "\u2581gaz": 5477,
  "\u2581s\u00f6ylemedin": 5478,
  "\u2581results": 5479,
  "\u2581pal": 5480,
  "\u2581davranma": 5481,
  "\u2581A\u015fk": 5482,
  "\u2581kal\u0131yor": 5483,
  "lendi": 5484,
  "\u2581Te\u011fmen": 5485,
  "\u2581Tomorrow": 5486,
  "\u2581boyun": 5487,
  "\u2581babam\u0131n": 5488,
  "\u2581journey": 5489,
  "\u2581topu": 5490,
  "car": 5491,
  "meyin": 5492,
  "m\u0131\u015fs\u0131n": 5493,
  "\u2581freedom": 5494,
  "\u2581male": 5495,
  "\u2581b\u0131rakt\u0131m": 5496,
  "\u2581amount": 5497,
  "\u2581connection": 5498,
  "\u2581genel": 5499,
  "\u2581dogs": 5500,
  "nuz": 5501,
  "\u2581Sonraki": 5502,
  "\u2581bullet": 5503,
  "\u2581role": 5504,
  "\u2581soldiers": 5505,
  "\u2581s\u00fcr": 5506,
  "\u2581beg": 5507,
  "abiliyor": 5508,
  "\u2581sahne": 5509,
  "\u2581paket": 5510,
  "\u2581flying": 5511,
  "\u2581yapmam\u0131z": 5512,
  "\u2581Gal": 5513,
  "\u2581humans": 5514,
  "\u2581assume": 5515,
  "\u2581numaras\u0131": 5516,
  "\u2581transfer": 5517,
  "\u2581authority": 5518,
  "\u011fi": 5519,
  "\u2581Lou": 5520,
  "\u2581itibaren": 5521,
  "\u2581roof": 5522,
  "\u2581Y\u00fcz": 5523,
  "\u2581Kar\u015f\u0131": 5524,
  "\u2581patlama": 5525,
  "\u2581Hepiniz": 5526,
  "\u2581Matthew": 5527,
  "\u2581pen": 5528,
  "\u2581sok": 5529,
  "\u2581t\u0131k": 5530,
  "\u2581warning": 5531,
  "ating": 5532,
  "\u2581du": 5533,
  "ay": 5534,
  "rick": 5535,
  "\u2581testi": 5536,
  "\u2581Albay": 5537,
  "\u2581strike": 5538,
  "\u2581\u00e7ocuklar\u0131n": 5539,
  "\u2581s\u00f6ylemedim": 5540,
  "imizi": 5541,
  "\u2581papers": 5542,
  "\u2581tecav\u00fcz": 5543,
  "ld": 5544,
  "\u2581Ab": 5545,
  "s\u00fc": 5546,
  "\u2581Mars": 5547,
  "\u2581S\u00fcper": 5548,
  "\u2581hidden": 5549,
  "\u2581sil": 5550,
  "\u2581an\u0131": 5551,
  "\u2581April": 5552,
  "\u2581\u0130srail": 5553,
  "\u2581kayboldu": 5554,
  "siyle": 5555,
  "\u2581files": 5556,
  "\u2581korkuyorum": 5557,
  "\u2581Kas": 5558,
  "\u2581m\u00fc\u015fteri": 5559,
  "\u2581d\u00fc\u011f\u00fcn": 5560,
  "\u2581gods": 5561,
  "\u2581Kar\u0131m": 5562,
  "\u2581cake": 5563,
  "\u2581yak\u0131\u015f\u0131kl\u0131": 5564,
  "\u2581izleri": 5565,
  "\u2581ba\u011f": 5566,
  "\u2581girip": 5567,
  "\u2581gelece\u011fini": 5568,
  "\u2581bildir": 5569,
  "nt": 5570,
  "\u2581Oras\u0131": 5571,
  "\u2581balls": 5572,
  "dra": 5573,
  "\u2581Howard": 5574,
  "\u2581Unut": 5575,
  "\u2581Colonel": 5576,
  "\u2581nesi": 5577,
  "\u2581positive": 5578,
  "\u2581bucks": 5579,
  "rat": 5580,
  "\u2581cook": 5581,
  "\u2581Her\u015fey": 5582,
  "ene": 5583,
  "\u2581masa": 5584,
  "\u2581mum": 5585,
  "\u2581north": 5586,
  "\u2581sending": 5587,
  "\u2581theory": 5588,
  "iyoruz": 5589,
  "\u2581\u0130nan\u0131lmaz": 5590,
  "\u2581cidden": 5591,
  "\u2581g\u00fcnlerde": 5592,
  "\u2581de\u011fi\u015fti": 5593,
  "\u2581loose": 5594,
  "\u2581madde": 5595,
  "\u2581Ce": 5596,
  "\u2581Seriously": 5597,
  "\u2581arar\u0131m": 5598,
  "\u2581g\u00f6r\u00fcnce": 5599,
  "ebilirsiniz": 5600,
  "\u2581payla\u015f": 5601,
  "yacak": 5602,
  "\u2581Carol": 5603,
  "\u2581a\u00e7\u0131n": 5604,
  "\u2581Again": 5605,
  "\u2581comfortable": 5606,
  "\u2581Cool": 5607,
  "\u2581Fer": 5608,
  "\u2581Kahve": 5609,
  "\u2581Aaron": 5610,
  "\u2581pilot": 5611,
  "\u2581Chinese": 5612,
  "\u2581karar\u0131": 5613,
  "\u2581season": 5614,
  "\u2581derecede": 5615,
  "\u2581knock": 5616,
  "ball": 5617,
  "\u2581Nate": 5618,
  "\u2581safety": 5619,
  "od": 5620,
  "\u0131r\u0131m": 5621,
  "\u2581Although": 5622,
  "\u2581Queen": 5623,
  "\u2581amac\u0131": 5624,
  "\u2581desk": 5625,
  "\u2581de\u011filse": 5626,
  "\u2581Marcus": 5627,
  "\u2581gidece\u011fiz": 5628,
  "\u2581Profes\u00f6r": 5629,
  "\u2581bilmiyoruz": 5630,
  "\u2581Noah": 5631,
  "\u2581yasa": 5632,
  "\u2581Jess": 5633,
  "\u2581verebilir": 5634,
  "\u2581tap": 5635,
  "\u2581baksana": 5636,
  "\u2581buray\u0131": 5637,
  "\u2581G\u00fcn": 5638,
  "\u2581soy": 5639,
  "\u00fck": 5640,
  "\u2581Russian": 5641,
  "\u2581Name": 5642,
  "\u2581Mommy": 5643,
  "\u2581Kapat": 5644,
  "\u2581pieces": 5645,
  "s\u0131yla": 5646,
  "y\u0131p": 5647,
  "\u2581manager": 5648,
  "\u2581b\u0131rakmak": 5649,
  "\u2581bridge": 5650,
  "\u2581milk": 5651,
  "\u2581Thus": 5652,
  "\u2581yapabilirsin": 5653,
  "\u2581Follow": 5654,
  "\u2581ge\u00e7in": 5655,
  "\u2581yada": 5656,
  "ket": 5657,
  "\u2581odada": 5658,
  "\u2581tamir": 5659,
  "\u2581astray": 5660,
  "\u2581gelmi\u015fti": 5661,
  "\u2581hallederim": 5662,
  "d\u0131\u011f\u0131m\u0131": 5663,
  "\u2581intihar": 5664,
  "\u2581ends": 5665,
  "\u2581Merciful": 5666,
  "\u2581relax": 5667,
  "ral": 5668,
  "\u2581treatment": 5669,
  "\u2581Yahudi": 5670,
  "\u2581Ee": 5671,
  "\u2581sp": 5672,
  "\u2581monster": 5673,
  "\u2581\u00e7a\u011fr\u0131": 5674,
  "\u2581\u015funa": 5675,
  "\u2581Liz": 5676,
  "\u2581\u015feyim": 5677,
  "\u00fcc\u00fc": 5678,
  "\u2581Kill": 5679,
  "\u2581Kurt": 5680,
  "\u2581bekleyin": 5681,
  "\u258180": 5682,
  "\u2581dizi": 5683,
  "\u2581Fark": 5684,
  "\u2581dealing": 5685,
  "\u2581points": 5686,
  "\u2581direction": 5687,
  "\u00d6": 5688,
  "\u2581Masa": 5689,
  "\u2581Bey": 5690,
  "\u2581ordered": 5691,
  "\u2581tespit": 5692,
  "\u2581Pretty": 5693,
  "sey": 5694,
  "\u2581enemies": 5695,
  "\u2581oldu\u011funuz": 5696,
  "\u258135": 5697,
  "yet": 5698,
  "\u2581shower": 5699,
  "dikleri": 5700,
  "\u2581dinleyin": 5701,
  "ile": 5702,
  "\u2581Morning": 5703,
  "\u2581kaya": 5704,
  "\u2581gelece\u011fim": 5705,
  "\u2581hafif": 5706,
  "\u2581Jones": 5707,
  "\u2581gibidir": 5708,
  "\u2581Bilemiyorum": 5709,
  "\u2581image": 5710,
  "\u2581issues": 5711,
  "what": 5712,
  "\u2581Ever": 5713,
  "\u2581annen": 5714,
  "\u2581director": 5715,
  "\u2581opening": 5716,
  "\u2581ilan": 5717,
  "\u2581s\u00fcrer": 5718,
  "\u2581Beth": 5719,
  "\u2581ho\u015funa": 5720,
  "\u2581lines": 5721,
  "abilece\u011fini": 5722,
  "\u258190": 5723,
  "\u2581Nefes": 5724,
  "\u2581progress": 5725,
  "\u2581y\u00fck": 5726,
  "ebilirim": 5727,
  "rk": 5728,
  "\u2581$": 5729,
  "\u2581att\u0131": 5730,
  "\u2581\u015firketi": 5731,
  "\u2581numaral\u0131": 5732,
  "\u2581tepe": 5733,
  "\u2581original": 5734,
  "\u2581Y\u00fcksek": 5735,
  "\u2581sevgilim": 5736,
  "\u2581\u00fczg\u00fcn": 5737,
  "\u2581staff": 5738,
  "\u2581Both": 5739,
  "\u2581geldi\u011fi": 5740,
  "\u2581breaking": 5741,
  "\u2581Durumu": 5742,
  "\u2581considered": 5743,
  "\u2581ra": 5744,
  "\u2581breathe": 5745,
  "\u2581ka\u00e7\u0131r": 5746,
  "\u2581ba\u015flar": 5747,
  "\u2581Monday": 5748,
  "\u2581cards": 5749,
  "\u2581kur\u015fun": 5750,
  "\u2581recently": 5751,
  "\u2581current": 5752,
  "\u2581agreement": 5753,
  "\u2581taraf\u0131nda": 5754,
  "\u2581\u00f6\u011frenme": 5755,
  "\u2581Afrika": 5756,
  "\u2581cancer": 5757,
  "\u2581dressed": 5758,
  "\u2581football": 5759,
  "\u2581mountains": 5760,
  "\u2581somehow": 5761,
  "\u2581birileri": 5762,
  "\u2581daima": 5763,
  "\u2581Hal": 5764,
  "\u2581\u0130stedi\u011fin": 5765,
  "\u2581Professor": 5766,
  "\u2581Tyler": 5767,
  "n\u00fc": 5768,
  "\u2581Brown": 5769,
  "\u2581error": 5770,
  "\u2581v": 5771,
  "\u2581Yava\u015f": 5772,
  "\u2581however": 5773,
  "\u2581yaratt\u0131": 5774,
  "acaks\u0131n\u0131z": 5775,
  "\u2581Bro": 5776,
  "\u2581Tur": 5777,
  "\u2581Patron": 5778,
  "\u2581Pop": 5779,
  "\u2581hastal\u0131k": 5780,
  "\u0130yi": 5781,
  "\u2581alay": 5782,
  "amay\u0131z": 5783,
  "\u2581Angel": 5784,
  "\u2581century": 5785,
  "\u2581ceset": 5786,
  "\u2581g\u00f6sterdi": 5787,
  "ez": 5788,
  "\u2581tutma": 5789,
  "mus": 5790,
  "OR": 5791,
  "low": 5792,
  "\u2581g\u00f6steren": 5793,
  "\u2581Majesteleri": 5794,
  "\u2581Stand": 5795,
  "\u2581Mum": 5796,
  "\u2581baya\u011f\u0131": 5797,
  "\u2581discovered": 5798,
  "yin": 5799,
  "\u2581yap\u0131lm\u0131\u015f": 5800,
  "\u2581ba\u015flama": 5801,
  "\u2581degil": 5802,
  "\u2581di\u015fi": 5803,
  "\u2581kaba": 5804,
  "\u2581mil": 5805,
  "\u2581mahkum": 5806,
  "\u2581Gizli": 5807,
  "\u2581arabay\u0131": 5808,
  "\u2581HE": 5809,
  "t\u0131n": 5810,
  "\u2581cream": 5811,
  "\u2581beauty": 5812,
  "\u2581\u00f6ld\u00fcrd\u00fcn": 5813,
  "\u2581Doc": 5814,
  "\u2581k\u00f6le": 5815,
  "\u2581\u015fiddet": 5816,
  "\u2581a\u00e7\u0131k\u00e7a": 5817,
  "\u2581families": 5818,
  "\u2581temsil": 5819,
  "\u2581understanding": 5820,
  "\u2581Fransa": 5821,
  "\u2581unit": 5822,
  "\u2581talep": 5823,
  "\u2581Kontrol": 5824,
  "\u2581etraf\u0131nda": 5825,
  "d\u0131lar": 5826,
  "ime": 5827,
  "mam\u0131z": 5828,
  "\u2581Cinayet": 5829,
  "\u2581binlerce": 5830,
  "\u2581i\u00e7eride": 5831,
  "\u00e2n": 5832,
  "\u2581kullan\u0131yor": 5833,
  "\u2581kapa": 5834,
  "\u2581pazar": 5835,
  "\u258129": 5836,
  "\u2581Aah": 5837,
  "\u2581oras\u0131": 5838,
  "\u2581Bruce": 5839,
  "\u2581Majesty": 5840,
  "maktan": 5841,
  "\u2581appointed": 5842,
  "\u2581meyve": 5843,
  "\u2581federal": 5844,
  "\u2581hurts": 5845,
  "not": 5846,
  "\u2581sins": 5847,
  "\u2581beach": 5848,
  "\u2581devil": 5849,
  "\u2581divorce": 5850,
  "\u2581Karde\u015fim": 5851,
  "\u2581Justin": 5852,
  "\u2581Cole": 5853,
  "\u2581terms": 5854,
  "\u2581showing": 5855,
  "ther": 5856,
  "\u2581contract": 5857,
  "\u2581koyun": 5858,
  "\u2581Ladies": 5859,
  "tt": 5860,
  "\u2581Jenny": 5861,
  "mden": 5862,
  "ring": 5863,
  "\u2581cehennem": 5864,
  "\u2581\u00e7anta": 5865,
  "\u2581girme": 5866,
  "\u2581su\u00e7lama": 5867,
  "\u2581konu\u015fmay\u0131": 5868,
  "\u2581cousin": 5869,
  "\u2581merhamet": 5870,
  "\u2581interview": 5871,
  "\u2581al\u0131\u015f": 5872,
  "\u2581Bir\u00e7ok": 5873,
  "\u2581thoughts": 5874,
  "\u2581i\u00e7erisinde": 5875,
  "\u2581Know": 5876,
  "\u2581Six": 5877,
  "\u2581obey": 5878,
  "cho": 5879,
  "\u2581Gus": 5880,
  "\u2581yapt\u0131r": 5881,
  "\u2581answers": 5882,
  "\u2581ear": 5883,
  "\u2581pan": 5884,
  "\u2581insane": 5885,
  "\u2581istemez": 5886,
  "\u2581Mesela": 5887,
  "\u2581de\u011fi\u015ftirme": 5888,
  "\u2581g\u00fcnl\u00fck": 5889,
  "la\u015fma": 5890,
  "\u2581dust": 5891,
  "\u2581kullanarak": 5892,
  "\u2581forgiveness": 5893,
  "\u2581Vur": 5894,
  "\u2581u\u011fra\u015f": 5895,
  "\u2581disease": 5896,
  "\u2581alan\u0131": 5897,
  "\u2581)": 5898,
  "\u2581Yeterince": 5899,
  "\u2581ko\u015f": 5900,
  "\u2581s\u00f6yledi\u011fi": 5901,
  "\u2581Saturday": 5902,
  "\u2581bakar": 5903,
  "\u2581ge\u00e7iyorsun": 5904,
  "\u2581paras\u0131n\u0131": 5905,
  "In": 5906,
  "\u2581Rock": 5907,
  "\u2581Almanya": 5908,
  "\u2581Bizimle": 5909,
  "\u2581character": 5910,
  "\u2581h\u00fck\u00fcmet": 5911,
  "\u2581forced": 5912,
  "\u2581education": 5913,
  "\u2581grown": 5914,
  "\u2581kald\u0131k": 5915,
  "\u2581location": 5916,
  "\u2581stolen": 5917,
  "aj": 5918,
  "\u2581edemem": 5919,
  "\u2581onda": 5920,
  "bb": 5921,
  "\u2581Acil": 5922,
  "\u2581g\u00f6rmez": 5923,
  "\u2581silly": 5924,
  "\u2581flowers": 5925,
  "\u2581\u00f6ld\u00fcren": 5926,
  "our": 5927,
  "\u2581i\u015fbirli\u011fi": 5928,
  "\u2581tuzak": 5929,
  "\u2581polisi": 5930,
  "law": 5931,
  "\u2581amca": 5932,
  "\u2581tur": 5933,
  "\u2581storm": 5934,
  "umuz": 5935,
  "\u2581u\u00e7ak": 5936,
  "\u2581B\u0131rak\u0131n": 5937,
  "\u2581Sus": 5938,
  "\u2581posta": 5939,
  "\u2581Hitler": 5940,
  "\u2581evden": 5941,
  "\u2581chest": 5942,
  "\u2581b\u0131\u00e7ak": 5943,
  "\u2581aram\u0131zda": 5944,
  "\u2581faster": 5945,
  "\u2581su\u00e7u": 5946,
  "\u2581odas\u0131na": 5947,
  "\u2581\u015eerif": 5948,
  "\u2581kol": 5949,
  "\u2581felaket": 5950,
  "\u2581fail": 5951,
  "k\u0131": 5952,
  "\u2581Shh": 5953,
  "\u2581suicide": 5954,
  "nny": 5955,
  "\u2581Shi": 5956,
  "\u2581Av": 5957,
  "\u2581ca": 5958,
  "\u2581Baksana": 5959,
  "\u2581Jordan": 5960,
  "\u2581gazete": 5961,
  "\u2581Gir": 5962,
  "\u2581baz\u0131lar\u0131": 5963,
  "\u2581sword": 5964,
  "\u2581FOR": 5965,
  "\u2581\u00f6de": 5966,
  "bur": 5967,
  "\u2581reasons": 5968,
  "\u2581bunlardan": 5969,
  "\u2581tarz\u0131": 5970,
  "\u2581ya\u015f\u0131ndaki": 5971,
  "\u2581parlak": 5972,
  "\u2581yapaca\u011f\u0131m\u0131": 5973,
  "\u2581kurtarma": 5974,
  "\u2581sormak": 5975,
  "\u2581yo\u011fun": 5976,
  "ps": 5977,
  "\u2581selling": 5978,
  "\u2581talks": 5979,
  "\u2581\u00e7\u0131lg\u0131n": 5980,
  "\u2581Also": 5981,
  "esi": 5982,
  "\u2581Firavun": 5983,
  "\u2581uzay": 5984,
  "\u2581kas": 5985,
  "\u2581soru\u015fturma": 5986,
  "\u2581\u00f6ld\u00fcrecek": 5987,
  "\u2581Things": 5988,
  "\u2581kay\u0131t": 5989,
  "\u2581ge\u00e7irmek": 5990,
  "\u2581kar\u0131n": 5991,
  "\u2581Home": 5992,
  "\u2581d\u00f6nece\u011fim": 5993,
  "\u2581\u00fclkenin": 5994,
  "\u2581Muhte\u015fem": 5995,
  "\u2581hayalet": 5996,
  "\u2581tart\u0131\u015fma": 5997,
  "\u2581Koca": 5998,
  "\u2581queen": 5999,
  "\u2581familiar": 6000,
  "\u2581yen": 6001,
  "\u2581sweetie": 6002,
  "di\u011fimiz": 6003,
  "\u2581birbirine": 6004,
  "\u2581finger": 6005,
  "\u2581Hak": 6006,
  "\u2581kokuyor": 6007,
  "\u2581Pri": 6008,
  "sch": 6009,
  "\u2581say\u0131l\u0131r": 6010,
  "\u2581s\u00f6ylemedi": 6011,
  "ros": 6012,
  "\u2581hayat\u0131m\u0131": 6013,
  "\u2581higher": 6014,
  "\u2581g\u00fcl": 6015,
  "\u2581karma\u015f\u0131k": 6016,
  "\u2581Del": 6017,
  "\u2581Oysa": 6018,
  "ari": 6019,
  "\u2581buralarda": 6020,
  "\u2581\u015fimdiye": 6021,
  "\u2581Rus": 6022,
  "\u2581g\u00f6zden": 6023,
  "\u2581sad\u0131k": 6024,
  "\u2581wealth": 6025,
  "Ama": 6026,
  "\u2581kaybetme": 6027,
  "\u2581UN": 6028,
  "madan": 6029,
  "tte": 6030,
  "\u2581lately": 6031,
  "\u2581\u00d6ld\u00fcr": 6032,
  "\u2581bill": 6033,
  "\u2581\u015ea": 6034,
  "\u2581\u015f\u00fck\u00fcr": 6035,
  "\u2581Ni\u00e7in": 6036,
  "\u2581robot": 6037,
  "\u2581oynamak": 6038,
  "\u2581international": 6039,
  "\u2581sey": 6040,
  "u\u015f": 6041,
  "yer": 6042,
  "\u2581Many": 6043,
  "\u2581Ya\u015fl\u0131": 6044,
  "\u2581k\u0131r\u0131kl\u0131\u011f\u0131na": 6045,
  "\u2581Sar": 6046,
  "\u2581aray\u0131p": 6047,
  "\u2581mutluyum": 6048,
  "t\u00f6r": 6049,
  "\u2581gittin": 6050,
  "\u2581Baz\u0131lar\u0131": 6051,
  "\u2581success": 6052,
  "\u2581K\u0131sa": 6053,
  "\u2581block": 6054,
  "\u2581pardon": 6055,
  "\u00fcm\u00fcz": 6056,
  "\u2581hardly": 6057,
  "\u2581bey": 6058,
  "\u2581Bad": 6059,
  "\u2581hali": 6060,
  "\u2581i\u015fkence": 6061,
  "\u2581aras\u0131": 6062,
  "\u2581slept": 6063,
  "\u2581regular": 6064,
  "\u2581Tut": 6065,
  "\u2581Vincent": 6066,
  "\u2581ancient": 6067,
  "etti": 6068,
  "\u2581thousands": 6069,
  "\u2581forgotten": 6070,
  "\u2581dating": 6071,
  "\u2581guest": 6072,
  "\u2581po": 6073,
  "\u2581secure": 6074,
  "ung": 6075,
  "\u2581hissetme": 6076,
  "\u2581\u00d6nceki": 6077,
  "\u2581California": 6078,
  "\u2581Ram": 6079,
  "\u2581bas\u0131n": 6080,
  "\u2581vereyim": 6081,
  "\u2581Pazar": 6082,
  "\u2581Dev": 6083,
  "\u2581Barry": 6084,
  "\u2581particular": 6085,
  "\u2581boyu": 6086,
  "\u2581bilin": 6087,
  "\u2581Tar": 6088,
  "\u2581oynama": 6089,
  "eli": 6090,
  "\u2581meaning": 6091,
  "\u2581toward": 6092,
  "\u2581effect": 6093,
  "\u2581\u00e7al\u0131\u015f\u0131yordum": 6094,
  "\u2581yard\u0131m\u0131": 6095,
  "Ve": 6096,
  "\u2581meydana": 6097,
  "\u2581nowhere": 6098,
  "\u2581Nope": 6099,
  "\u2581kazanmak": 6100,
  "\u2581yeme\u011fe": 6101,
  "\u2581benefit": 6102,
  "\u2581\u00d6rne\u011fin": 6103,
  "\u2581kaybetti": 6104,
  "\u2581Sayfa": 6105,
  "\u2581Same": 6106,
  "\u2581Won": 6107,
  "\u2581S\u0131rp": 6108,
  "\u2581ba\u015fkas\u0131": 6109,
  "\u2581kullanmak": 6110,
  "\u2581d\u00fczelt": 6111,
  "\u2581reality": 6112,
  "\u2581g\u00f6r\u00fcr": 6113,
  "\u2581funeral": 6114,
  "pan": 6115,
  "\u2581Ber": 6116,
  "\u2581lt": 6117,
  "\u2581Pre": 6118,
  "\u2581kanun": 6119,
  "\u0131lmas\u0131": 6120,
  "\u2581jealous": 6121,
  "\u2581Yer": 6122,
  "\u2581kan\u0131": 6123,
  "isi": 6124,
  "\u2581\u00e7al\u0131\u015ft\u0131\u011f\u0131n\u0131": 6125,
  "\u2581hissettim": 6126,
  "d\u0131klar\u0131": 6127,
  "huh": 6128,
  "\u2581Babam\u0131n": 6129,
  "\u0131yorsunuz": 6130,
  "\u2581Linda": 6131,
  "\u2581oluruz": 6132,
  "\u2581diyelim": 6133,
  "\u2581\u015feydi": 6134,
  "\u2581Defol": 6135,
  "\u2581movies": 6136,
  "\u2581threat": 6137,
  "\u2581disbelievers": 6138,
  "\u2581fate": 6139,
  "\u2581onay": 6140,
  "\u2581D\u00fcnyan\u0131n": 6141,
  "\u2581i\u00e7er": 6142,
  "\u2581perfectly": 6143,
  "\u2581meselesi": 6144,
  "\u2581Ex": 6145,
  "\u2581ge\u00e7erli": 6146,
  "\u2581Vince": 6147,
  "\u2581girin": 6148,
  "\u2581topluluk": 6149,
  "des": 6150,
  "\u2581K\u0131rm\u0131z\u0131": 6151,
  "\u2581Katie": 6152,
  "\u2581i\u015fimiz": 6153,
  "ecektir": 6154,
  "\u2581\u00e7ekmek": 6155,
  "\u2581Officer": 6156,
  "\u2581g\u00fcn\u00fcnde": 6157,
  "\u2581trees": 6158,
  "\u2581oturma": 6159,
  "\u2581yapmam\u0131": 6160,
  "\u2581invite": 6161,
  "\u2581Blue": 6162,
  "muyor": 6163,
  "\u2581olunca": 6164,
  "ls": 6165,
  "zar": 6166,
  "\u2581Mesih": 6167,
  "leriniz": 6168,
  "\u2581kar\u015f\u0131s\u0131nda": 6169,
  "\u2581Edward": 6170,
  "\u2581National": 6171,
  "\u2581Clear": 6172,
  "\u2581Brother": 6173,
  "\u2581kar\u0131\u015f\u0131k": 6174,
  "\u2581Amca": 6175,
  "\u2581technology": 6176,
  "\u2581Alt\u0131n": 6177,
  "\u2581rate": 6178,
  "\u2581grateful": 6179,
  "\u2581ghost": 6180,
  "\u2581protection": 6181,
  "\u2581do\u011frusu": 6182,
  "d\u0131\u011f\u0131nda": 6183,
  "\u2581mountain": 6184,
  "\u2581Dava": 6185,
  "\u2581at\u0131\u015f": 6186,
  "\u2581de\u011filmi\u015f": 6187,
  "ince": 6188,
  "\u2581da\u011f": 6189,
  "\u2581Kitab\u0131": 6190,
  "\u2581Vo": 6191,
  "\u2581Fo": 6192,
  "\u2581houses": 6193,
  "\u2581Dans": 6194,
  "\u2581barely": 6195,
  "\u2581offered": 6196,
  "\u2581angel": 6197,
  "\u2581yap\u0131lacak": 6198,
  "\u2581fought": 6199,
  "\u2581physical": 6200,
  "\u2581s\u00f6yledi\u011fim": 6201,
  "\u2581mark": 6202,
  "\u2581heading": 6203,
  "\u2581\u0130n": 6204,
  "\u2581Lois": 6205,
  "\u2581oyuncu": 6206,
  "\u2581bilemiyorum": 6207,
  "\u2581elektrik": 6208,
  "\u2581hakim": 6209,
  "Who": 6210,
  "\u2581elinden": 6211,
  "\u2581d\u0131\u015f": 6212,
  "\u2581mar": 6213,
  "\u2581complicated": 6214,
  "\u2581Germany": 6215,
  "\u2581stone": 6216,
  "\u2581D\u00fc\u015f\u00fcn": 6217,
  "\u2581grew": 6218,
  "\u2581Dick": 6219,
  "\u2581fare": 6220,
  "\u2581yerel": 6221,
  "am\u0131yor": 6222,
  "\u2581filan": 6223,
  "\u2581\u00c7ekil": 6224,
  "\u2581committed": 6225,
  "\u2581nuts": 6226,
  "\u2581buried": 6227,
  "\u2581olman\u0131n": 6228,
  "\u2581\u00e7ekiyor": 6229,
  "\u2581Lucas": 6230,
  "\u2581yerle\u015ftir": 6231,
  "rin": 6232,
  "\u2581edeceksin": 6233,
  "\u2581istedi\u011finiz": 6234,
  "\u2581secrets": 6235,
  "\u2581yapt\u0131klar\u0131n\u0131": 6236,
  "\u2581Ciddi": 6237,
  "\u2581Todd": 6238,
  "\u2581guided": 6239,
  "\u2581===": 6240,
  "\u2581cezas\u0131": 6241,
  "\u2581ettir": 6242,
  "\u2581filled": 6243,
  "\u2581commit": 6244,
  "\u2581insanlarla": 6245,
  "\u2581liste": 6246,
  "head": 6247,
  "\u2581ruin": 6248,
  "\u2581details": 6249,
  "\u2581\u00c7avu\u015f": 6250,
  "\u2581Korkar\u0131m": 6251,
  "\u2581Q": 6252,
  "\u2581pasta": 6253,
  "eceksin": 6254,
  "\u2581baylar": 6255,
  "\u2581m\u00fcthi\u015f": 6256,
  "\u2581davran\u0131\u015f": 6257,
  "\u2581partners": 6258,
  "\u2581Durum": 6259,
  "\u2581Tor": 6260,
  "\u2581ortada": 6261,
  "\u2581official": 6262,
  "key": 6263,
  "\u2581\u00e7ekti": 6264,
  "\u2581geride": 6265,
  "\u2581konu\u015fmam": 6266,
  "\u2581ekip": 6267,
  "\u2581Belli": 6268,
  "\u2581h\u0131rs\u0131z": 6269,
  "\u2581bilirim": 6270,
  "\u2581distance": 6271,
  "\u2581released": 6272,
  "\u2581Catherine": 6273,
  "\u2581olmasayd\u0131": 6274,
  "mektedir": 6275,
  "\u2581Fucking": 6276,
  "\u2581odas\u0131": 6277,
  "\u2581\u00e7\u00f6z": 6278,
  "\u2581yasal": 6279,
  "\u2581tan\u0131\u015fma": 6280,
  "\u2581Kula\u011f": 6281,
  "\u2581Do\u011fum": 6282,
  "\u2581yard\u0131ma": 6283,
  "\u2581toprak": 6284,
  "cik": 6285,
  "\u0131l\u0131yor": 6286,
  "\u2581Yarg\u0131\u00e7": 6287,
  "\u2581unbelievers": 6288,
  "\u2581s\u00f6yledi\u011fin": 6289,
  "\u2581resmen": 6290,
  "\u2581tanesi": 6291,
  "\u2581expecting": 6292,
  "\u2581anlatt\u0131": 6293,
  "\u2581outta": 6294,
  "\u2581professional": 6295,
  "\u2581harekete": 6296,
  "\u2581akl\u0131ma": 6297,
  "\u2581fikri": 6298,
  "\u2581dini": 6299,
  "\u2581ihtiyac\u0131n\u0131z": 6300,
  "\u2581S\u0131ra": 6301,
  "\u2581yapaca\u011f\u0131n\u0131": 6302,
  "\u2581fa": 6303,
  "\u2581\u00f6zledim": 6304,
  "\u2581Bol": 6305,
  "\u2581Frankie": 6306,
  "\u2581ayakta": 6307,
  "\u2581olmazsa": 6308,
  "\u2581provided": 6309,
  "\u2581ink\u00e2r": 6310,
  "\u2581sexual": 6311,
  "\u2581\u00e7\u0131plak": 6312,
  "ilecek": 6313,
  "\u2581K\u0131zlar": 6314,
  "\u2581Ailem": 6315,
  "\u2581Hope": 6316,
  "\u2581Bel": 6317,
  "m\u0131z\u0131n": 6318,
  "\u2581player": 6319,
  "\u2581hikmet": 6320,
  "\u2581ge\u00e7me": 6321,
  "\u2581yetki": 6322,
  "\u2581growing": 6323,
  "\u2581Ci": 6324,
  "\u2581G\u00f6r": 6325,
  "\u2581kat\u0131lma": 6326,
  "30": 6327,
  "\u2581Jin": 6328,
  "\u2581appointment": 6329,
  "\u2581gelirse": 6330,
  "\u2581Yaz": 6331,
  "\u2581gate": 6332,
  "\u2581ellerini": 6333,
  "\u2581chose": 6334,
  "\u2581medicine": 6335,
  "\u2581presence": 6336,
  "\u2581violence": 6337,
  "\u2581\u00e7at\u0131": 6338,
  "\u2581doors": 6339,
  "mb": 6340,
  "\u2581alakas\u0131": 6341,
  "sky": 6342,
  "\u2581Jessica": 6343,
  "\u2581Komik": 6344,
  "ning": 6345,
  "\u2581\u015fa": 6346,
  "MA": 6347,
  "ab\u0131": 6348,
  "\u2581d\u00f6v\u00fc\u015f": 6349,
  "\u2581ticket": 6350,
  "vin": 6351,
  "\u2581televizyon": 6352,
  "\u2581garden": 6353,
  "\u2581krizi": 6354,
  "\u2581\u015feyle": 6355,
  "\u2581Anyone": 6356,
  "\u2581hissediyor": 6357,
  "ebiliyor": 6358,
  "\u2581becomes": 6359,
  "right": 6360,
  "\u2581square": 6361,
  "\u2581cesur": 6362,
  "\u2581June": 6363,
  "\u2581Andolsun": 6364,
  "\u2581laid": 6365,
  "\u2581surface": 6366,
  "\u2581d\u00f6necek": 6367,
  "\u2581Pull": 6368,
  "\u2581affair": 6369,
  "\u2581rahmet": 6370,
  "ece\u011fi": 6371,
  "\u2581Derek": 6372,
  "\u2581huzur": 6373,
  "\u2581ilerleme": 6374,
  "\u2581almay\u0131": 6375,
  "mi\u015fsin": 6376,
  "\u2581ba\u015flang\u0131\u00e7": 6377,
  "\u2581ba\u015flat": 6378,
  "\u2581bulundu\u011fu": 6379,
  "\u2581Air": 6380,
  "\u2581planned": 6381,
  "\u2581society": 6382,
  "\u2581Elena": 6383,
  "\u2581flat": 6384,
  "\u2581s\u00f6yleyebilirim": 6385,
  "\u2581cam": 6386,
  "\u2581lesson": 6387,
  "\u2581Dosya": 6388,
  "\u2581Whoever": 6389,
  "\u2581mesela": 6390,
  "\u2581wise": 6391,
  "\u2581bite": 6392,
  "\u2581nedeniyle": 6393,
  "\u2581duygu": 6394,
  "\u2581Albert": 6395,
  "\u2581Cho": 6396,
  "\u2581han\u0131m": 6397,
  "\u2581Miller": 6398,
  "\u2581g\u00f6rme": 6399,
  "\u2581creation": 6400,
  "\u2581Sally": 6401,
  "\u2581appear": 6402,
  "\u2581konu\u015fal\u0131m": 6403,
  "\u2581y\u0131lda": 6404,
  "\u2581tiny": 6405,
  "\u2581B\u00f6lge": 6406,
  "\u2581k\u0131za": 6407,
  "\u00c7ok": 6408,
  "\u2581British": 6409,
  "\u2581cares": 6410,
  "\u2581Wilson": 6411,
  "\u2581bulunuyor": 6412,
  "\u2581Temiz": 6413,
  "\u2581settle": 6414,
  "\u2581soldier": 6415,
  "\u2581etkisi": 6416,
  "\u2581falling": 6417,
  "\u2581yazma": 6418,
  "\u2581rent": 6419,
  "\u2581istemi\u015ftim": 6420,
  "\u2581\u00f6ld\u00fcr\u00fcld\u00fc": 6421,
  "To": 6422,
  "\u2581bread": 6423,
  "\u2581ihtiyar": 6424,
  "ial": 6425,
  "\u2581concern": 6426,
  "\u2581south": 6427,
  "\u2581olsayd\u0131m": 6428,
  "\u2581similar": 6429,
  "\u2581darkness": 6430,
  "\u2581rica": 6431,
  "\u2581wash": 6432,
  "\u2581NATO": 6433,
  "\u2581makine": 6434,
  "\u2581\u00fcniversite": 6435,
  "\u2581Ash": 6436,
  "\u2581letters": 6437,
  "tti": 6438,
  "\u2581disappeared": 6439,
  "top": 6440,
  "\u2581Hannah": 6441,
  "\u2581cep": 6442,
  "\u2581olabilirdi": 6443,
  "\u2581media": 6444,
  "\u2581\u0130\u00e7ki": 6445,
  "\u2581\u00d6z": 6446,
  "\u2581Bilgi": 6447,
  "\u2581a\u00e7\u0131\u011fa": 6448,
  "\u2581renk": 6449,
  "\u2581hastane": 6450,
  "}": 6451,
  "?\u201d": 6452,
  "\u258131": 6453,
  "\u2581attacked": 6454,
  "\u2581tehlike": 6455,
  "\u2581usual": 6456,
  "\u2581Kira": 6457,
  "gun": 6458,
  "\u2581remove": 6459,
  "\u2581Easy": 6460,
  "\u2581ar": 6461,
  "\u2581taksi": 6462,
  "\u2581bunda": 6463,
  "led": 6464,
  "\u2581pure": 6465,
  "\u2581g\u00f6r\u00fcn": 6466,
  "\u2581merkezi": 6467,
  "\u2581plant": 6468,
  "\u2581\u00e7": 6469,
  "\u2581paint": 6470,
  "\u2581belge": 6471,
  "\u2581d\u00fc\u015f\u00fcnmek": 6472,
  "\u2581loud": 6473,
  "\u2581futbol": 6474,
  "q": 6475,
  "\u2581ba\u015flayal\u0131m": 6476,
  "\u2581Paray\u0131": 6477,
  "\u2581fully": 6478,
  "\u2581emir": 6479,
  "\u2581shape": 6480,
  "lad\u0131": 6481,
  "\u2581bulu\u015fma": 6482,
  "\u2581gang": 6483,
  "\u2581Bravo": 6484,
  "\u2581obvious": 6485,
  "\u2581Bre": 6486,
  "\u2581Gitmem": 6487,
  "\u2581profesyonel": 6488,
  "\u2581ba\u015far\u0131s\u0131z": 6489,
  "Q": 6490,
  "\u2581Yeniden": 6491,
  "\u2581uyuyor": 6492,
  "\u2581Sergeant": 6493,
  "\u2581forces": 6494,
  "\u2581tie": 6495,
  "tz": 6496,
  "\u2581sordu": 6497,
  "\u2581Major": 6498,
  "\u2581b\u00f6l\u00fcm": 6499,
  "\u2581screw": 6500,
  "\u2581Use": 6501,
  "\u2581yakla\u015f": 6502,
  "\u2581Jamie": 6503,
  "\u2581se\u00e7enek": 6504,
  "\u2581gerekirdi": 6505,
  "\u2581veremem": 6506,
  "\u2581Sue": 6507,
  "\u2581ge\u00e7irdim": 6508,
  "nik": 6509,
  "\u2581eksik": 6510,
  "\u2581\u00e7iz": 6511,
  "Her": 6512,
  "\u2581g\u00f6revi": 6513,
  "\u2581a\u00e7ma": 6514,
  "ona": 6515,
  "\u2581Old": 6516,
  "\u2581Mah": 6517,
  "l\u0131lar": 6518,
  "\u2581servis": 6519,
  "\u2581regret": 6520,
  "\u2581ald\u0131\u011f\u0131": 6521,
  "Re": 6522,
  "bal": 6523,
  "\u2581yolculuk": 6524,
  "\u2581dig": 6525,
  "ding": 6526,
  "\u2581brave": 6527,
  "\u2581Aw": 6528,
  "\u2581lower": 6529,
  "\u2581g\u00f6z\u00fck\u00fcyor": 6530,
  "mizin": 6531,
  "\u2581chosen": 6532,
  "mal\u0131": 6533,
  "\u2581BE": 6534,
  "\u2581joy": 6535,
  "\u2581Adam\u0131n": 6536,
  "\u2581duygusal": 6537,
  "\u2581dinlen": 6538,
  "\u2581kendileri": 6539,
  "\u2581s\u00f6ylerim": 6540,
  "\u2581charges": 6541,
  "ram": 6542,
  "\u2581art\u0131": 6543,
  "\u2581ismini": 6544,
  "\u2581headed": 6545,
  "\u2581false": 6546,
  "\u2581suffering": 6547,
  "\u2581remind": 6548,
  "\u2581golf": 6549,
  "\u2581duruma": 6550,
  "\u2581Evi": 6551,
  "\u2581Stone": 6552,
  "\u2581map": 6553,
  "seydim": 6554,
  "\u2581proper": 6555,
  "E\u011fer": 6556,
  "hat": 6557,
  "\u2581ate": 6558,
  "\u2581anlatma": 6559,
  "yip": 6560,
  "\u2581\u0131\u015f\u0131\u011f\u0131": 6561,
  "\u2581d\u00fc\u015f\u00fcnd\u00fcn": 6562,
  "\u2581eksi": 6563,
  "\u2581kazand\u0131": 6564,
  "\u2581s\u00f6yledi\u011fini": 6565,
  "\u2581ko": 6566,
  "\u2581giyin": 6567,
  "\u2581August": 6568,
  "Ka": 6569,
  "\u2581laughing": 6570,
  "\u2581tongue": 6571,
  "s\u0131nlar": 6572,
  "\u2581eskiden": 6573,
  "\u2581ediyorsunuz": 6574,
  "\u2581sevdi\u011fini": 6575,
  "\u2581excellent": 6576,
  "\u2581Amerikal\u0131": 6577,
  "\u2581Birini": 6578,
  "\u2581duydu\u011fum": 6579,
  "\u011fini": 6580,
  "\u2581bat": 6581,
  "\u2581s\u00fct": 6582,
  "gra": 6583,
  "\u2581koyma": 6584,
  "\u2581foreign": 6585,
  "mur": 6586,
  "\u2581Sophie": 6587,
  "\u2581etti\u011fin": 6588,
  "nla": 6589,
  "\u2581vi": 6590,
  "\u2581\u015firket": 6591,
  "\u2581getiren": 6592,
  "\u2581g\u00f6nderdik": 6593,
  "\u2581kalaca\u011f\u0131m": 6594,
  "\u2581yapar\u0131z": 6595,
  "\u2581demi\u015ftin": 6596,
  "\u2581bedroom": 6597,
  "abilmek": 6598,
  "back": 6599,
  "\u2581Wayne": 6600,
  "\u2581aralar\u0131nda": 6601,
  "\u2581\u015fart": 6602,
  "\u2581Carlos": 6603,
  "\u2581incredible": 6604,
  "\u2581ugly": 6605,
  "\u2581i\u00e7inden": 6606,
  "\u2581gitmiyor": 6607,
  "\u2581Terry": 6608,
  "\u2581geli\u015fme": 6609,
  "\u2581Guy": 6610,
  "\u2581genelde": 6611,
  "\u2581Kingdom": 6612,
  "\u2581\u00e7al\u0131\u015fmaya": 6613,
  "\u2581internet": 6614,
  "\u2581\u00e7\u00f6p": 6615,
  "\u2581Rahat": 6616,
  "\u2581\u00c7\u0131kar": 6617,
  "\u2581b\u00f6l\u00fcm\u00fc": 6618,
  "\u2581f\u0131rsat\u0131": 6619,
  "\u2581izlemek": 6620,
  "tion": 6621,
  "\u2581tren": 6622,
  "\u2581\u00fczerindeki": 6623,
  "But": 6624,
  "\u2581ayarla": 6625,
  "\u2581billion": 6626,
  "\u2581flesh": 6627,
  "\u2581streets": 6628,
  "\u2581takma": 6629,
  "\u2581concerning": 6630,
  "\u2581\u015funlar\u0131": 6631,
  "row": 6632,
  "\u2581yapars\u0131n": 6633,
  "\u2581neighborhood": 6634,
  "\u2581\u00e7e\u015fitli": 6635,
  "\u2581fixed": 6636,
  "\u2581kahvalt\u0131": 6637,
  "\u2581Ann": 6638,
  "\u2581farm": 6639,
  "\u2581Kon": 6640,
  "\u2581grubu": 6641,
  "\u2581olmam\u0131z": 6642,
  "\u2581Numara": 6643,
  "\u2581Afedersiniz": 6644,
  "\u2581McC": 6645,
  "\u2581vurma": 6646,
  "\u2581lift": 6647,
  "\u2581hired": 6648,
  "\u2581ka\u00e7\u0131rma": 6649,
  "war": 6650,
  "\u2581Yard\u0131mc\u0131": 6651,
  "\u2581accepted": 6652,
  "\u2581vermeyece\u011fim": 6653,
  "\u2581Ad\u0131n": 6654,
  "\u2581dancing": 6655,
  "\u2581touched": 6656,
  "\u2581Silah\u0131": 6657,
  "\u2581artist": 6658,
  "\u2581fruit": 6659,
  "\u2581ka\u011f\u0131t": 6660,
  "\u2581girmi\u015f": 6661,
  "\u2581konu\u015fuyorsun": 6662,
  "\u2581Ruh": 6663,
  "\u2581laf": 6664,
  "\u2581yan\u0131t": 6665,
  "\u2581Ba\u015fkan\u0131": 6666,
  "\u2581bulaca\u011f\u0131m": 6667,
  "\u011fe": 6668,
  "\u2581tank": 6669,
  "\u2581arkada\u015flar": 6670,
  "UR": 6671,
  "\u2581Pen": 6672,
  "\u2581birds": 6673,
  "\u2581remains": 6674,
  "\u2581g\u00f6z\u00fc": 6675,
  "\u2581hall": 6676,
  "jan": 6677,
  "\u2581Birileri": 6678,
  "\u2581gain": 6679,
  "\u2581kad\u0131nla": 6680,
  "ura": 6681,
  "\u2581Christians": 6682,
  "\u2581yapmaz": 6683,
  "\u2581\u00f6l\u00fcm\u00fc": 6684,
  "\u2581atmak": 6685,
  "\u2581r": 6686,
  "\u2581\u015e": 6687,
  "\u2581wives": 6688,
  "\u2581yapamaz": 6689,
  "-1": 6690,
  "\u2581denen": 6691,
  "\u2581nas\u0131ld\u0131": 6692,
  "Sa": 6693,
  "\u2581pair": 6694,
  "\u2581England": 6695,
  "\u2581mood": 6696,
  "ally": 6697,
  "lenme": 6698,
  "\u2581dokuz": 6699,
  "\u2581grave": 6700,
  "\u2581Hereafter": 6701,
  "\u2581almam": 6702,
  "\u2581Sea": 6703,
  "\u2581\u266b": 6704,
  "\u2581a\u011fr\u0131": 6705,
  "\u2581i\u00e7indir": 6706,
  "\u2581Ho\u015f\u00e7akal": 6707,
  "\u2581Olabilir": 6708,
  "\u2581Konu\u015fma": 6709,
  "\u2581kinds": 6710,
  "\u2581hem\u015fire": 6711,
  "\u2581harder": 6712,
  "\u2581happiness": 6713,
  "\u2581Bakan\u0131": 6714,
  "\u2581sides": 6715,
  "\u2581kinda": 6716,
  "\u2581Et": 6717,
  "\u2581istiyordum": 6718,
  "\u2581Believe": 6719,
  "\u2581ailem": 6720,
  "\u2581pencere": 6721,
  "com": 6722,
  "\u2581stomach": 6723,
  "\u2581Yol": 6724,
  "\u2581sonras\u0131nda": 6725,
  "\u2581tekne": 6726,
  "\u2581otel": 6727,
  "\u2581Prime": 6728,
  "amayacak": 6729,
  "g\u00fcn": 6730,
  "\u2581yat\u0131r\u0131m": 6731,
  "\u2581girer": 6732,
  "\u2581diz": 6733,
  "lan\u0131r": 6734,
  "\u2581Way": 6735,
  "\u2581ederken": 6736,
  "\u2581i\u015fimi": 6737,
  "\u2581\u015fans\u0131m\u0131z": 6738,
  "cak": 6739,
  "\u2581Boo": 6740,
  "m\u0131zda": 6741,
  "\u2581wound": 6742,
  "\u2581kart": 6743,
  "\u2581bakt\u0131m": 6744,
  "\u2581kar\u0131m": 6745,
  "\u2581patients": 6746,
  "\u2581karde\u015fin": 6747,
  "\u2581d\u00f6nerim": 6748,
  "\u2581solve": 6749,
  "ON": 6750,
  "\u2581DO": 6751,
  "\u2581kaynak": 6752,
  "\u2581g\u00f6zlerini": 6753,
  "hane": 6754,
  "\u0131yordu": 6755,
  "\u2581Marty": 6756,
  "\u2581\u00f6lecek": 6757,
  "\u2581naked": 6758,
  "lis": 6759,
  "\u2581Best": 6760,
  "\u2581elimizde": 6761,
  "\u2581\u015eimdiye": 6762,
  "\u2581tan\u0131\u015fmak": 6763,
  "\u2581tehlikeye": 6764,
  "lie": 6765,
  "\u2581sa\u011flamak": 6766,
  "\u2581snow": 6767,
  "\u2581paras\u0131": 6768,
  "\u2581introduce": 6769,
  "\u2581fathers": 6770,
  "\u2581korkma": 6771,
  "\u2581bal": 6772,
  "\u2581milyar": 6773,
  "\u2581Send": 6774,
  "\u2581River": 6775,
  "\u2581drinks": 6776,
  "\u2581manage": 6777,
  "\u2581Gil": 6778,
  "\u2581da\u011f\u0131t": 6779,
  "\u2581Haber": 6780,
  "\u2581varken": 6781,
  "\u2581Harvey": 6782,
  "\u2581de\u011filsiniz": 6783,
  "\u2581advantage": 6784,
  "\u2581yapmas\u0131": 6785,
  "\u2581dersiniz": 6786,
  "\u2581verdiler": 6787,
  "\u2581parties": 6788,
  "\u2581\u00e7arp\u0131": 6789,
  "\u2581ihtimalle": 6790,
  "\u2581Gene": 6791,
  "\u2581etmedi": 6792,
  "\u2581ilerle": 6793,
  "Neden": 6794,
  "\u2581arazi": 6795,
  "\u2581isyan": 6796,
  "\u2581sohbet": 6797,
  "\u2581adl\u0131": 6798,
  "\u2581Donna": 6799,
  "dis": 6800,
  "\u2581gitmeye": 6801,
  "\u2581Miami": 6802,
  "evi": 6803,
  "mis": 6804,
  "qua": 6805,
  "\u2581Birle\u015fik": 6806,
  "\u2581d\u00fc\u015f\u00fcn\u00fcyorsunuz": 6807,
  "\u2581pig": 6808,
  "\u2581pleased": 6809,
  "\u2581easily": 6810,
  "\u2581el\u00e7i": 6811,
  "\u2581SO": 6812,
  "\u2581flow": 6813,
  "\u2581noise": 6814,
  "\u2581d\u00fcnyadaki": 6815,
  "They": 6816,
  "\u2581elimden": 6817,
  "\u2581fingers": 6818,
  "\u2581THIS": 6819,
  "\u2581jobs": 6820,
  "\u2581goodbye": 6821,
  "\u2581ihtimali": 6822,
  "born": 6823,
  "\u2581rough": 6824,
  "\u2581saving": 6825,
  "\u2581\u00e7ald\u0131": 6826,
  "\u2581teori": 6827,
  "\u2581\u00dczerinde": 6828,
  "\u2581Haven": 6829,
  "\u2581partisi": 6830,
  "\u2581alakal\u0131": 6831,
  "\u2581ruined": 6832,
  "\u2581isterseniz": 6833,
  "\u2581online": 6834,
  "\u2581material": 6835,
  "\u2581bak\u0131yor": 6836,
  "\u2581Parker": 6837,
  "\u2581bardak": 6838,
  "\u2581dies": 6839,
  "\u2581i\u00e7me": 6840,
  "\u2581liar": 6841,
  "\u2581olu\u015fan": 6842,
  "\u2581Buyurun": 6843,
  "\u2581Bayanlar": 6844,
  "\u2581Night": 6845,
  "\u2581exact": 6846,
  "liyor": 6847,
  "\u2581freak": 6848,
  "ste": 6849,
  "\u0131r\u0131z": 6850,
  "\u2581Binba\u015f\u0131": 6851,
  "Al": 6852,
  "\u2581Gibbs": 6853,
  "\u2581g\u00f6r\u00fcnt\u00fc": 6854,
  "\u2581k\u0131zla": 6855,
  "Ba": 6856,
  "\u2581Anlam\u0131yorum": 6857,
  "iye": 6858,
  "\u2581Carrie": 6859,
  "lat": 6860,
  "\u2581pi\u015fman": 6861,
  "\u2581tour": 6862,
  "lanacak": 6863,
  "\u2581Tak": 6864,
  "\u2581o\u011flan": 6865,
  "\u2581Truth": 6866,
  "\u2581zafer": 6867,
  "\u2581Witnesses": 6868,
  "\u2581orda": 6869,
  "\u2581bones": 6870,
  "\u2581specific": 6871,
  "\u2581Gre": 6872,
  "\u2581\u00e7ekip": 6873,
  "\u2581can\u0131n\u0131": 6874,
  "\u258170": 6875,
  "\u2581a\u00e7\u0131dan": 6876,
  "more": 6877,
  "\u2581kal\u0131p": 6878,
  "\u2581Apparently": 6879,
  "\u2581powers": 6880,
  "\u2581detective": 6881,
  "\u2581aside": 6882,
  "\u258132": 6883,
  "\u2581Word": 6884,
  "\u2581tavuk": 6885,
  "\u2581gerekti\u011fi": 6886,
  "\u2581denir": 6887,
  "\u2581mevcut": 6888,
  "\u2581Art": 6889,
  "\u2581Kent": 6890,
  "\u2581siyasi": 6891,
  "\u2581Rob": 6892,
  "\u2581kafay\u0131": 6893,
  "lam\u0131\u015f": 6894,
  "\u2581anahtar\u0131": 6895,
  "\u2581\u00d6ld\u00fc": 6896,
  "\u2581ton": 6897,
  "\u2581device": 6898,
  "\u2581A\u015fa\u011f\u0131": 6899,
  "\u2581runs": 6900,
  "\u2581temas": 6901,
  "\u2581Dennis": 6902,
  "\u2581\u00e7\u0131kard\u0131": 6903,
  "cy": 6904,
  "\u2581haz\u0131r\u0131m": 6905,
  "\u2581iyisin": 6906,
  "\u2581\u0130\u015fi": 6907,
  "leyen": 6908,
  "\u2581Angela": 6909,
  "\u2581g\u00f6n\u00fcll\u00fc": 6910,
  "\u2581\u00f6nem": 6911,
  "kini": 6912,
  "\u2581penis": 6913,
  "\u0131m\u0131z\u0131": 6914,
  "\u2581giant": 6915,
  "\u2581tatil": 6916,
  "\u2581Save": 6917,
  "\u2581ba\u015f\u0131ndan": 6918,
  "\u2581i\u015flerini": 6919,
  "\u2581s\u0131rt": 6920,
  "\u2581Y\u0131ld\u0131z": 6921,
  "\u2581ediyordu": 6922,
  "\u2581pahal\u0131": 6923,
  "\u2581moral": 6924,
  "\u2581Bilgisayar": 6925,
  "\u2581Vic": 6926,
  "\u2581Steven": 6927,
  "\u2581odaklan": 6928,
  "\u2581etmeliyiz": 6929,
  "\u2581holy": 6930,
  "ou": 6931,
  "\u2581di\u015f": 6932,
  "\u2581harcama": 6933,
  "\u2581say\u0131s\u0131": 6934,
  "\u2581Cuma": 6935,
  "\u2581bike": 6936,
  "\u2581pocket": 6937,
  "\u2581Yukar\u0131": 6938,
  "\u2581birisin": 6939,
  "\u2581kenara": 6940,
  "\u2581photos": 6941,
  "\u2581\u015e\u00fcphe": 6942,
  "\u2581ba\u011fla": 6943,
  "\u2581\"...": 6944,
  "\u2581vision": 6945,
  "az": 6946,
  "\u2581Sweet": 6947,
  "\u2581bayanlar": 6948,
  "\u2581kira": 6949,
  "wi": 6950,
  "\u2581Ses": 6951,
  "\u2581bulunma": 6952,
  "\u0131rlar": 6953,
  "\u2581hatam": 6954,
  "\u2581hastaneye": 6955,
  "\u2581Commander": 6956,
  "\u2581kazanma": 6957,
  "\u2581Johnson": 6958,
  "\u2581Olivia": 6959,
  "\u2581nurse": 6960,
  "\u2581serseri": 6961,
  "\u2581Burda": 6962,
  "\u2581Millet": 6963,
  "nle": 6964,
  "\u2581olduk": 6965,
  "\u2581\u00f6lmek": 6966,
  "\u2581kayd\u0131": 6967,
  "\u2581coat": 6968,
  "\u2581hapiste": 6969,
  "\u2581Randy": 6970,
  "\u2581es": 6971,
  "\u2581suck": 6972,
  "\u2581exchange": 6973,
  "\u2581policy": 6974,
  "\u2581souls": 6975,
  "\u2581mutluluk": 6976,
  "\u2581havaya": 6977,
  "\u2581kod": 6978,
  "\u2581bi\u00e7imde": 6979,
  "ebilirsin": 6980,
  "\u2581kingdom": 6981,
  "\u2581\u015fehrin": 6982,
  "17": 6983,
  "cher": 6984,
  "\u2581burning": 6985,
  "\u2581dinleme": 6986,
  "\u2581katlan": 6987,
  "\u2581direct": 6988,
  "\u2581verdi\u011fim": 6989,
  "\u2581olmamas\u0131": 6990,
  "\u2581rat": 6991,
  "\u2581bulup": 6992,
  "\u2581olman\u0131": 6993,
  "\u2581veri": 6994,
  "\u2581sudden": 6995,
  "\u2581intikam": 6996,
  "\u2581Hollywood": 6997,
  "\u2581Ji": 6998,
  "\u2581buying": 6999,
  "\u2581derdi": 7000,
  "\u2581Ruth": 7001,
  "\u2581stood": 7002,
  "unda": 7003,
  "\u2581sorabilir": 7004,
  "\u2581Sizden": 7005,
  "Don": 7006,
  "\u2581insurance": 7007,
  "\u2581\u00e7ekilin": 7008,
  "\u2581gelmesini": 7009,
  "\u2581durun": 7010,
  "c\u0131lar": 7011,
  "nes": 7012,
  "li\u011fine": 7013,
  "\u2581NO": 7014,
  "\u2581Nina": 7015,
  "ray": 7016,
  "\u2581claim": 7017,
  "\u2581nas\u0131ls\u0131n": 7018,
  "ub": 7019,
  "\u2581Hill": 7020,
  "\u2581Genel": 7021,
  "\u2581doctors": 7022,
  "\u2581g\u00f6rd\u00fck": 7023,
  "tes": 7024,
  "\u2581weather": 7025,
  "\u2581keresinde": 7026,
  "\u2581yang\u0131n": 7027,
  "\u2581li": 7028,
  "\u2581ediyordum": 7029,
  "\u2581izleme": 7030,
  "\u2581request": 7031,
  "\u2581rise": 7032,
  "\u2581Mexico": 7033,
  "\u2581increase": 7034,
  "\u2581sa\u011flar": 7035,
  "yecek": 7036,
  "\u2581par": 7037,
  "\u2581yeti\u015fkin": 7038,
  "\u2581\u00f6\u011fret": 7039,
  "\u2581Buray\u0131": 7040,
  "\u2581Rabbi": 7041,
  "\u2581\u015fapka": 7042,
  "\u2581sa\u011fla": 7043,
  "\u2581Berlin": 7044,
  "diler": 7045,
  "\u2581gidebilir": 7046,
  "\u2581koku": 7047,
  "\u2581verdi\u011fin": 7048,
  "\u2581throat": 7049,
  "\u2581clock": 7050,
  "\u2581Sid": 7051,
  "\u2581aynen": 7052,
  "\u2581stock": 7053,
  "\u2581g\u00f6sterme": 7054,
  "\u2581witnesses": 7055,
  "\u2581d\u00fcz": 7056,
  "\u2581Party": 7057,
  "\u2581sacrifice": 7058,
  "\u2581warrant": 7059,
  "\u2581\u015fok": 7060,
  "\u2581below": 7061,
  "\u2581kad\u0131na": 7062,
  "tma": 7063,
  "\u2581row": 7064,
  "\u2581Dylan": 7065,
  "\u2581gecesi": 7066,
  "\u2581\u00e7i\u00e7ek": 7067,
  "\u2581Mart": 7068,
  "yar": 7069,
  "\u2581reports": 7070,
  "25": 7071,
  "\u258148": 7072,
  "\u2581Dayan": 7073,
  "\u2581buraday\u0131z": 7074,
  "\u2581arayaca\u011f\u0131m": 7075,
  "\u2581hat\u0131rlam\u0131yorum": 7076,
  "All": 7077,
  "\u2581halka": 7078,
  "\u2581\u00fcst\u00fc": 7079,
  "fo": 7080,
  "\u2581Gordon": 7081,
  "==": 7082,
  "\u2581ki\u015filik": 7083,
  "\u2581bulma": 7084,
  "\u2581\u015eimdilik": 7085,
  "\u2581getiriyor": 7086,
  "\u2581plan\u0131": 7087,
  "\u2581olmazd\u0131": 7088,
  "\u2581Bekleyin": 7089,
  "\u2581campaign": 7090,
  "\u2581Greek": 7091,
  "\u2581G\u00f6ster": 7092,
  "\u2581Pazartesi": 7093,
  "\u2581airport": 7094,
  "\u2581d\u00fczen": 7095,
  "\u2581screwed": 7096,
  "\u2581Yedi": 7097,
  "\u2581bright": 7098,
  "\u2581Mag": 7099,
  "\u2581Dedi": 7100,
  "\u2581ekibi": 7101,
  "\u2581kasaba": 7102,
  "\u2581\u015fans\u0131n": 7103,
  "\u2581Char": 7104,
  "\u2581yarg\u0131": 7105,
  "hir": 7106,
  "\u2581served": 7107,
  "seydi": 7108,
  "fu": 7109,
  "\u2581solution": 7110,
  "sunu": 7111,
  "\u2581birinde": 7112,
  "\u2581fi": 7113,
  "\u2581Cat": 7114,
  "\u2581Cap": 7115,
  "ast": 7116,
  "\u2581bina": 7117,
  "\u2581yarat": 7118,
  "\u2581Davis": 7119,
  "\u2581muyuz": 7120,
  "\u2581function": 7121,
  "\u2581Rica": 7122,
  "\u2581r\u00fczgar": 7123,
  "\u2581separate": 7124,
  "\u2581sisters": 7125,
  "\u2581e\u015fi": 7126,
  "kat": 7127,
  "\u2581tarih": 7128,
  "\u2581isteme": 7129,
  "\u2581Nihayet": 7130,
  "\u2581memories": 7131,
  "\u2581Casey": 7132,
  "\u2581Sin": 7133,
  "\u2581yapt\u0131\u011f\u0131n\u0131z": 7134,
  "\u2581zalim": 7135,
  "\u2581Gabriel": 7136,
  "\u2581jerk": 7137,
  "bs": 7138,
  "\u2581d\u00f6nem": 7139,
  "\u2581Read": 7140,
  "\u2581gerekmez": 7141,
  "\u2581MY": 7142,
  "\u2581aday": 7143,
  "\u2581etrafta": 7144,
  "ward": 7145,
  "\u2581\u0131srar": 7146,
  "\u2581approach": 7147,
  "ska": 7148,
  "\u2581Jews": 7149,
  "\u2581goin": 7150,
  "\u2581Peygamber": 7151,
  "\u2581Onlarla": 7152,
  "\u2581bat\u0131": 7153,
  "\u2581vermem": 7154,
  "pre": 7155,
  "\u2581Su\u00e7": 7156,
  "\u2581sa\u011flad\u0131": 7157,
  "\u2581anahtar": 7158,
  "\u2581Yak\u0131n": 7159,
  "\u2581kurallar\u0131": 7160,
  "\u2581dedi\u011fini": 7161,
  "\u2581d\u00f6nme": 7162,
  "\u2581istiyordu": 7163,
  "\u2581bah\u00e7e": 7164,
  "lar\u0131m\u0131z\u0131n": 7165,
  "\u2581Pharaoh": 7166,
  "\u2581Children": 7167,
  "ach": 7168,
  "\u2581Kad\u0131nlar": 7169,
  "\u2581ettiniz": 7170,
  "\u2581a\u011fa\u00e7": 7171,
  "\u2581sooner": 7172,
  "like": 7173,
  "\u2581eggs": 7174,
  "\u2581hepiniz": 7175,
  "\u2581Bit": 7176,
  "\u2581sus": 7177,
  "leyici": 7178,
  "\u2581aktar": 7179,
  "\u2581kom\u015fu": 7180,
  "\u2581Martha": 7181,
  "ilir": 7182,
  "\u2581hile": 7183,
  "\u2581hani": 7184,
  "this": 7185,
  "\u2581Rabbimiz": 7186,
  "\u2581ON": 7187,
  "\u2581\u015fekli": 7188,
  "\u0131yorlar": 7189,
  "\u2581anger": 7190,
  "\u2581ayakkab\u0131": 7191,
  "ans": 7192,
  "with": 7193,
  "\u2581Anl\u0131yor": 7194,
  "\u2581D\u00f6n": 7195,
  "\u2581Korku": 7196,
  "\u2581Birazdan": 7197,
  "\u2581pe\u015finden": 7198,
  "\u201c": 7199,
  "\u2581Oscar": 7200,
  "\u2581yumu\u015fak": 7201,
  "\u2581style": 7202,
  "gue": 7203,
  "\u2581China": 7204,
  "\u2581Kimsenin": 7205,
  "\u2581g\u00fcnd\u00fcr": 7206,
  "\u2581\u015fahit": 7207,
  "\u2581Close": 7208,
  "\u2581lonely": 7209,
  "\u2581oluyorum": 7210,
  "\u2581successful": 7211,
  "#": 7212,
  "\u2581spring": 7213,
  "\u2581ili\u015fkin": 7214,
  "\u2581handsome": 7215,
  "\u2581i\u00e7mek": 7216,
  "\u2581nerde": 7217,
  "\u2581Uyu\u015fturucu": 7218,
  "\u2581olmal\u0131y\u0131m": 7219,
  "\u2581toilet": 7220,
  "\u2581Leon": 7221,
  "\u2581getirdin": 7222,
  "\u2581soft": 7223,
  "\u2581Kra": 7224,
  "\u2581d\u0131\u015f\u0131na": 7225,
  "\u2581hayata": 7226,
  "\u2581Hit": 7227,
  "zy": 7228,
  "\u2581\u015feydir": 7229,
  "\u2581Yusuf": 7230,
  "s\u00fcz": 7231,
  "\u2581Honor": 7232,
  "\u2581celebrate": 7233,
  "\u2581burned": 7234,
  "\u2581baban\u0131n": 7235,
  "\u2581d\u00f6ner": 7236,
  "\u2581Kenny": 7237,
  "ika": 7238,
  "\u2581Rabbine": 7239,
  "\u2581victory": 7240,
  "\u2581yat\u0131r": 7241,
  "\u2581sandalye": 7242,
  "\u2581nazik": 7243,
  "\u2581sa\u011fl\u0131kl\u0131": 7244,
  "\u2581unuttum": 7245,
  "\u011f\u0131n\u0131": 7246,
  "bit": 7247,
  "\u2581hayat\u0131n\u0131n": 7248,
  "\u2581Shawn": 7249,
  "\u2581\u0130\u00e7eride": 7250,
  "\u2581\u00fccret": 7251,
  "\u2581Boston": 7252,
  "\u2581Africa": 7253,
  "\u2581sevimli": 7254,
  "\u2581border": 7255,
  "\u2581ge\u00e7irdi": 7256,
  "\u2581mass": 7257,
  "ebilece\u011fini": 7258,
  "hal": 7259,
  "\u2581changing": 7260,
  "m\u0131\u015ft\u0131k": 7261,
  "\u2581curse": 7262,
  "\u2581screen": 7263,
  "\u2581doin": 7264,
  "\u2581Caroline": 7265,
  "\u2581Grant": 7266,
  "\u2581abi": 7267,
  "\u2581durdu": 7268,
  "bri": 7269,
  "\u00fcm\u00fc": 7270,
  "\u2581minus": 7271,
  "\u2581b\u0131rakm\u0131\u015f": 7272,
  "ora": 7273,
  "\u2581romantic": 7274,
  "\u2581kek": 7275,
  "\u2581g\u00f6t\u00fcrd\u00fc": 7276,
  "ington": 7277,
  "\u2581Ste": 7278,
  "\u2581appears": 7279,
  "\u2581Ham": 7280,
  "\u2581al\u0131\u015fveri\u015f": 7281,
  "\u2581\u00dclke": 7282,
  "\u2581Hor": 7283,
  "\u2581Ellen": 7284,
  "\u2581ger": 7285,
  "\u2581carrying": 7286,
  "\u2581harca": 7287,
  "\u2581sar\u0131l": 7288,
  "\u2581sugar": 7289,
  "\u2581Wil": 7290,
  "\u2581range": 7291,
  "\u2581kar\u0131\u015fma": 7292,
  "\u2581wisdom": 7293,
  "\u2581expensive": 7294,
  "\u2581\u00dc": 7295,
  "\u2581Avukat": 7296,
  "\u2581\u00e7al\u0131\u015f\u0131yordu": 7297,
  "\u2581kald\u0131n": 7298,
  "\u2581\u00f6p": 7299,
  "\u2581g\u00f6r\u00fc\u015fmek": 7300,
  "\u2581s\u00f6yl\u00fcyorlar": 7301,
  "40": 7302,
  "log": 7303,
  "\u00fb": 7304,
  "\u2581\u015eark\u0131": 7305,
  "\u2581\u0130\u015fler": 7306,
  "\u2581\u015fiddetli": 7307,
  "\u2581ships": 7308,
  "\u2581steps": 7309,
  "There": 7310,
  "\u2581hissediyorsun": 7311,
  "liler": 7312,
  "\u2581cenaze": 7313,
  "\u2581kahrolas\u0131": 7314,
  "anlar": 7315,
  "boy": 7316,
  "\u2581Is": 7317,
  "\u2581Stephen": 7318,
  "\u2581g\u00fcvenme": 7319,
  "\u2581\u00e7ekim": 7320,
  "\u2581yapamazs\u0131n": 7321,
  "\u2581shake": 7322,
  "art": 7323,
  "\u2581Neredesin": 7324,
  "\u2581\u00f6ld\u00fcr\u00fcr": 7325,
  "\u2581confused": 7326,
  "Well": 7327,
  "\u2581Gold": 7328,
  "\u2581uluslararas\u0131": 7329,
  "\u2581bath": 7330,
  "\u2581Sil": 7331,
  "\u2581tutuyor": 7332,
  "\u2581meal": 7333,
  "\u2581inanm\u0131yorum": 7334,
  "\u2581Francis": 7335,
  "\u2581yapt\u0131n\u0131z": 7336,
  "\u2581thus": 7337,
  "\u2581sa\u011flayacak": 7338,
  "\u2581\u00f6ne": 7339,
  "\u2581lack": 7340,
  "13": 7341,
  "\u2581Luc": 7342,
  "\u2581\u00e7eker": 7343,
  "\u2581SETimes": 7344,
  "\u2581measure": 7345,
  "\u2581species": 7346,
  "\u2581prepare": 7347,
  "\u2581\u00f6ld\u00fc\u011f\u00fcn\u00fc": 7348,
  "\u2581bebe\u011fi": 7349,
  "\u2581Drop": 7350,
  "\u2581K\u0131z\u0131m": 7351,
  "\u2581drove": 7352,
  "\u2581yaratan": 7353,
  "\u2581warned": 7354,
  "\u2581woods": 7355,
  "\u2581inananlar": 7356,
  "\u2581pat": 7357,
  "\u2581elimde": 7358,
  "ett": 7359,
  "la\u015f": 7360,
  "\u2581ihtiya\u00e7lar\u0131": 7361,
  "\u2581watched": 7362,
  "\u2581illegal": 7363,
  "\u2581\u00f6\u011fretmen": 7364,
  "\u2581g\u00f6ze": 7365,
  "\u0131rken": 7366,
  "\u2581\u00f6lme": 7367,
  "as\u0131": 7368,
  "\u2581Tonight": 7369,
  "\u2581ocean": 7370,
  "\u2581Korkun\u00e7": 7371,
  "\u2581bakan": 7372,
  "\u2581y\u00fcce": 7373,
  "\u2581bak\u0131yorsun": 7374,
  "\u2581assistant": 7375,
  "\u2581directly": 7376,
  "\u2581a\u011f": 7377,
  "mesine": 7378,
  "tel": 7379,
  "\u2581Gemi": 7380,
  "\u2581dokun": 7381,
  "\u2581carried": 7382,
  "\u2581eline": 7383,
  "\u2581Zoe": 7384,
  "\u2581Philip": 7385,
  "\u2581uzat": 7386,
  "\u2581yapmal\u0131y\u0131z": 7387,
  "\u2581jacket": 7388,
  "\u2581Seven": 7389,
  "\u2581eventually": 7390,
  "\u2581\u00dcst": 7391,
  "oo": 7392,
  "\u2581\u00f6\u011fle": 7393,
  "\u2581attorney": 7394,
  "\u2581conference": 7395,
  "\u2581yumruk": 7396,
  "\u2581bak\u0131yorum": 7397,
  "\u2581k\u00fcl": 7398,
  "\u2581aya\u011fa": 7399,
  "\u2581Audrey": 7400,
  "\u2581offering": 7401,
  "\u2581Walker": 7402,
  "\u2581crash": 7403,
  "\u2581Owen": 7404,
  "\u2581Thor": 7405,
  "\u2581grace": 7406,
  "\u2581Ser": 7407,
  "\u2581option": 7408,
  "\u2581ald\u0131\u011f\u0131n\u0131": 7409,
  "\u2581faithful": 7410,
  "\u2581d\u00fc\u015f\u00fcn\u00fcn": 7411,
  "\u2581owner": 7412,
  "\u2581Karar": 7413,
  "\u2581M\u0131s\u0131r": 7414,
  "\u2581G\u00fc\u00e7": 7415,
  "\u2581ge\u00e7ecek": 7416,
  "\u2581walls": 7417,
  "\u2581uygulama": 7418,
  "she": 7419,
  "\u2581Arama": 7420,
  "\u2581gelmeden": 7421,
  "\u2581gene": 7422,
  "\u2581kalmaz": 7423,
  "\u2581kuvvet": 7424,
  "Ro": 7425,
  "\u2581brilliant": 7426,
  "\u2581san\u0131yor": 7427,
  "\u2581kulluk": 7428,
  "\u2581Free": 7429,
  "\u2581Kalp": 7430,
  "\u2581radyo": 7431,
  "\u2581traffic": 7432,
  "LA": 7433,
  "\u2581Number": 7434,
  "\u2581Garip": 7435,
  "\u2581teknik": 7436,
  "yaca\u011f\u0131m": 7437,
  "\u2581stronger": 7438,
  "\u2581yorum": 7439,
  "\u2581mermi": 7440,
  "nder": 7441,
  "\u2581delivered": 7442,
  "\u2581vergi": 7443,
  "\u2581Security": 7444,
  "\u2581Uyu": 7445,
  "\u2581v\u00fccut": 7446,
  "\u2581capable": 7447,
  "\u2581Neither": 7448,
  "\u2581fortune": 7449,
  "\u2581Resurrection": 7450,
  "\u2581exciting": 7451,
  "\u2581ajan": 7452,
  "au": 7453,
  "\u2581Bin": 7454,
  "\u2581ederse": 7455,
  "\u2581leads": 7456,
  "\u2581olmayabilir": 7457,
  "\u2581demedim": 7458,
  "\u2581economic": 7459,
  "\u2581events": 7460,
  "\u2581downstairs": 7461,
  "\u2581edersen": 7462,
  "\u2581Grand": 7463,
  "\u2581uy": 7464,
  "burg": 7465,
  "\u2581Rome": 7466,
  "\u2581Veya": 7467,
  "amad\u0131": 7468,
  "\u2581sefere": 7469,
  "\u2581g\u00f6remiyorum": 7470,
  "\u2581RAB": 7471,
  "\u2581g\u00f6r\u00fcnm\u00fcyor": 7472,
  "mazlar": 7473,
  "\u2581goal": 7474,
  "\u2581Yi": 7475,
  "\u2581insanlardan": 7476,
  "\u2581kayb\u0131": 7477,
  "\u2581sa\u011fl\u0131yor": 7478,
  "\u2581Memnun": 7479,
  "\u2581b\u00f6l\u00fc": 7480,
  "mizde": 7481,
  "\u2581KNOW": 7482,
  "\u2581ki\u015fiye": 7483,
  "\u2581vacation": 7484,
  "\u2581\u015fehirde": 7485,
  "\u2581bleeding": 7486,
  "vis": 7487,
  "\u2581task": 7488,
  "\u2581Super": 7489,
  "\u2581Poor": 7490,
  "\u2581s\u00fcrecek": 7491,
  "\u2581genius": 7492,
  "\u2581sordum": 7493,
  "mun": 7494,
  "\u2581\u00fcz\u00fcld\u00fcm": 7495,
  "\u2581Unutma": 7496,
  "\u2581cab": 7497,
  "\u2581effort": 7498,
  "n\u0131zda": 7499,
  "\u2581doldur": 7500,
  "\u2581hassas": 7501,
  "ky": 7502,
  "AT": 7503,
  "yerek": 7504,
  "\u2581cheese": 7505,
  "\u2581Nuh": 7506,
  "\u2581crack": 7507,
  "\u2581hook": 7508,
  "\u2581loving": 7509,
  "\u2581\u00dcniversitesi": 7510,
  "\u00fcs": 7511,
  "\u2581Diane": 7512,
  "\u2581biter": 7513,
  "\u2581ba\u015fkan": 7514,
  "\u2581bilgileri": 7515,
  "\u2581ba\u015fl\u0131yoruz": 7516,
  "\u2581gelsin": 7517,
  "port": 7518,
  "\u2581painting": 7519,
  "\u2581picking": 7520,
  "Seni": 7521,
  "d\u0131\u011f\u0131n\u0131z": 7522,
  "\u2581Jen": 7523,
  "\u2581sokak": 7524,
  "\u2581\u0130ster": 7525,
  "\u2581kar\u015f\u0131la\u015fma": 7526,
  "\u2581vermiyor": 7527,
  "\u2581defense": 7528,
  "\u2581Coming": 7529,
  "\u2581Julian": 7530,
  "\u2581horses": 7531,
  "ep": 7532,
  "\u2581Alt": 7533,
  "\u2581Bomba": 7534,
  "\u2581healthy": 7535,
  "\u2581personally": 7536,
  "ria": 7537,
  "\u2581kasa": 7538,
  "mal\u0131yd\u0131m": 7539,
  "\u2581Madem": 7540,
  "\u2581bone": 7541,
  "mad\u0131m": 7542,
  "\u2581Arkada\u015f\u0131m": 7543,
  "\u2581desert": 7544,
  "\u03bf": 7545,
  "\u2581ot": 7546,
  "\u2581bulaca\u011f\u0131z": 7547,
  "\u2581cure": 7548,
  "zan": 7549,
  "\u2581Earl": 7550,
  "\u2581\u00f6neri": 7551,
  "\u2581boktan": 7552,
  "emeyiz": 7553,
  "\u2581sat\u0131\u015f": 7554,
  "\u2581ta\u015f\u0131ma": 7555,
  "\u2581Bell": 7556,
  "\u2581edemez": 7557,
  "\u2581ability": 7558,
  "\u2581zehir": 7559,
  "\u2581Erkekler": 7560,
  "\u2581spell": 7561,
  "\u2581Internet": 7562,
  "\u2581singing": 7563,
  "\u2581s\u00f6zleri": 7564,
  "\u2581understood": 7565,
  "\u2581whenever": 7566,
  "\u25812008": 7567,
  "\u2581etsin": 7568,
  "\u2581hukuk": 7569,
  "\u2581Wake": 7570,
  "\u2581Pick": 7571,
  "\u2581denied": 7572,
  "\u2581g\u00fcnden": 7573,
  "\u2581Marshall": 7574,
  "\u2581license": 7575,
  "illa": 7576,
  "\u2581secde": 7577,
  "ping": 7578,
  "\u2581ke": 7579,
  "\u2581favour": 7580,
  "Co": 7581,
  "\u2581fark\u0131n": 7582,
  "\u2581Meksika": 7583,
  "\u2581Gen": 7584,
  "\u2581plain": 7585,
  "\u2581eri\u015f": 7586,
  "kon": 7587,
  "\u2581fayda": 7588,
  "\u2581sorular": 7589,
  "\u2581Las": 7590,
  "mmer": 7591,
  "\u2581\u015fikayet": 7592,
  "\u2581d\u00fc\u015f\u00fcnm\u00fcyorum": 7593,
  "\u2581akl\u0131n\u0131": 7594,
  "\u2581memur": 7595,
  "\u2581fiziksel": 7596,
  "\u2581Start": 7597,
  "\u2581\u00f6ld\u00fcrece\u011fim": 7598,
  "his": 7599,
  "\u2581fark\u0131nday\u0131m": 7600,
  "\u2581region": 7601,
  "\u2581Teddy": 7602,
  "\u2581\u015fehri": 7603,
  "\u2581faydas\u0131": 7604,
  "16": 7605,
  "\u2581babies": 7606,
  "\u2581y\u0131ld\u0131z\u0131": 7607,
  "\u2581u\u00e7u\u015f": 7608,
  "\u2581sava\u015f\u0131": 7609,
  "\u2581r\u0131z\u0131k": 7610,
  "\u2581silver": 7611,
  "\u2581ameliyat": 7612,
  "\u2581konu\u015furuz": 7613,
  "\u2581scare": 7614,
  "lock": 7615,
  "\u2581Plus": 7616,
  "\u2581siktir": 7617,
  "18": 7618,
  "\u2581dili": 7619,
  "\u2581priest": 7620,
  "\u2581aramak": 7621,
  "layaca\u011f\u0131m": 7622,
  "\u2581Set": 7623,
  "\u2581etmelisin": 7624,
  "\u2581ip": 7625,
  "\u2581delik": 7626,
  "\u2581D\u00fcr\u00fcst": 7627,
  "\u2581e\u015flik": 7628,
  "\u2581Eva": 7629,
  "\u2581kime": 7630,
  "\u2581potential": 7631,
  "\u2581schedule": 7632,
  "til": 7633,
  "\u2581Prince": 7634,
  "eri": 7635,
  "\u2581sahibidir": 7636,
  "\u2581y\u00f6nelik": 7637,
  "\u2581grade": 7638,
  "\u2581gather": 7639,
  "\u2581sistem": 7640,
  "\u2581Hakl\u0131": 7641,
  "\u2581Okul": 7642,
  "\u2581challenge": 7643,
  "\u2581pot": 7644,
  "\u2581manifest": 7645,
  "ina": 7646,
  "\u2581becoming": 7647,
  "\u2581kaybettik": 7648,
  "\u2581folder": 7649,
  "ight": 7650,
  "\u2581madam": 7651,
  "ny": 7652,
  "\u2581Yakla\u015f\u0131k": 7653,
  "\u2581geldiler": 7654,
  "pp": 7655,
  "\u2581dert": 7656,
  "\u2581beyefendi": 7657,
  "\u2581judgment": 7658,
  "\u2581a\u00e7t\u0131": 7659,
  "\u2581s\u0131z": 7660,
  "mail": 7661,
  "\u2581Nu": 7662,
  "\u2581Florida": 7663,
  "\u2581ge\u00e7ici": 7664,
  "\u2581do\u011fruyu": 7665,
  "\u2581services": 7666,
  "\u2581Perfect": 7667,
  "pro": 7668,
  "\u2581Sonsuz": 7669,
  "\u2581Raj": 7670,
  "\u2581Thou": 7671,
  "\u2581m\u0131yd\u0131n": 7672,
  "\u2581Tuesday": 7673,
  "\u2581zenci": 7674,
  "\u2581button": 7675,
  "\u2581bilmez": 7676,
  "\u2581spiritual": 7677,
  "\u2581Au": 7678,
  "\u2581shown": 7679,
  "\u2581yerlere": 7680,
  "\u2581status": 7681,
  "\u2581tickets": 7682,
  "\u2581ucuz": 7683,
  "\u2581basically": 7684,
  "\u2581moves": 7685,
  "\u2581Uzak": 7686,
  "\u2581Geliyorum": 7687,
  "\u2581deri": 7688,
  "\u2581getireyim": 7689,
  "\u2581affet": 7690,
  "\u2581tart\u0131\u015f": 7691,
  "Bana": 7692,
  "\u2581bilinen": 7693,
  "\u2581noktas\u0131": 7694,
  "\u2581sevmez": 7695,
  "\u2581Victoria": 7696,
  "\u2581\u00e7ete": 7697,
  "\u2581b\u00fcy\u00fcme": 7698,
  "\u2581mesaj\u0131": 7699,
  "\u2581Berbat": 7700,
  "\u2581etmiyorum": 7701,
  "\u2581awake": 7702,
  "\u2581creatures": 7703,
  "\u2581darbe": 7704,
  "gh": 7705,
  "\u2581i\u011fne": 7706,
  "\u2581operasyon": 7707,
  "\u2581Hata": 7708,
  "c\u00fc": 7709,
  "\u2581kurt": 7710,
  "\u2581say\u0131da": 7711,
  "\u2581Sat": 7712,
  "\u2581wide": 7713,
  "\u2581Raymond": 7714,
  "\u2581bahsetme": 7715,
  "\u2581Especially": 7716,
  "\u2581Toby": 7717,
  "\u2581woke": 7718,
  "\u2581\u0130kisi": 7719,
  "\u2581Cut": 7720,
  "\u2581placed": 7721,
  "\u2581waited": 7722,
  "\u2581\u00dc\u00e7\u00fcnc\u00fc": 7723,
  "\u2581sabit": 7724,
  "\u2581h\u00fccre": 7725,
  "\u2581otherwise": 7726,
  "gon": 7727,
  "\u2581fantastic": 7728,
  "\u2581onur": 7729,
  "ef": 7730,
  "\u2581vah\u015fi": 7731,
  "\u2581B\u00fcy\u00fc": 7732,
  "\u2581tad\u0131n\u0131": 7733,
  "\u2581Cheers": 7734,
  "sk": 7735,
  "\u2581kocaman": 7736,
  "\u2581title": 7737,
  "\u2581arabaya": 7738,
  "\u2581shock": 7739,
  "\u2581fancy": 7740,
  "\u2581oldu\u011funun": 7741,
  "\u2581rush": 7742,
  "\u2581Krali\u00e7e": 7743,
  "\u2581spoken": 7744,
  "\u2581Sy": 7745,
  "\u2581konu\u015fan": 7746,
  "\u2581Aye": 7747,
  "\u2581anlar": 7748,
  "\u2581gitmeliyim": 7749,
  "\u2581sar\u0131": 7750,
  "\u2581kale": 7751,
  "\u2581Miles": 7752,
  "\u2581spare": 7753,
  "\u2581Forgive": 7754,
  "\u2581object": 7755,
  "\u2581girerim": 7756,
  "El": 7757,
  "\u2581kocam": 7758,
  "meyece\u011fiz": 7759,
  "mle": 7760,
  "\u2581garanti": 7761,
  "UN": 7762,
  "\u2581Normal": 7763,
  "\u2581behavior": 7764,
  "\u2581Finn": 7765,
  "\u2581YOUR": 7766,
  "\u2581circumstances": 7767,
  "\u2581east": 7768,
  "\u2581goodness": 7769,
  "\u2581a\u015fk\u0131m": 7770,
  "\u2581kilise": 7771,
  "\u2581Ari": 7772,
  "ano": 7773,
  "\u2581PHP": 7774,
  "\u2581annemin": 7775,
  "\u2581Rosa": 7776,
  "\u2581g\u00f6r\u00fcyorsun": 7777,
  "\u2581G\u00fcl": 7778,
  "\u2581kul": 7779,
  "\u2581Beraber": 7780,
  "\u2581Kimi": 7781,
  "\u2581Meg": 7782,
  "\u2581babe": 7783,
  "\u2581response": 7784,
  "\u2581\u00f6\u011fretti": 7785,
  "\u2581crimes": 7786,
  "\u2581version": 7787,
  "\u2581\u00dcstelik": 7788,
  "\u2581giderken": 7789,
  "\u2581trap": 7790,
  "\u2581sipari\u015f": 7791,
  "\u2581bu\u00e7uk": 7792,
  "\u2581HAVE": 7793,
  "\u2581boring": 7794,
  "\u2581lideri": 7795,
  "\u2581Whoo": 7796,
  "\u2581Barbara": 7797,
  "\u2581kad\u0131nlar\u0131n": 7798,
  "\u2581ga": 7799,
  "\u2581Shin": 7800,
  "\u2581gentleman": 7801,
  "\u2581ba\u015fta": 7802,
  "\u2581be\u011fen": 7803,
  "\u2581genellikle": 7804,
  "\u2581Oldu": 7805,
  "\u2581edil": 7806,
  "\u2581mighty": 7807,
  "\u2581gelirim": 7808,
  "\u2581ama\u00e7": 7809,
  "\u2581teaching": 7810,
  "\u2581article": 7811,
  "lf": 7812,
  "\u2581Hong": 7813,
  "layarak": 7814,
  "\u2581dedi\u011fi": 7815,
  "Where": 7816,
  "\u2581G\u00fcn\u00fc": 7817,
  "\u2581revenge": 7818,
  "\u2581verildi": 7819,
  "\u2581ba\u011f\u0131\u015fla": 7820,
  "\u2581kimseler": 7821,
  "\u2581s\u00fcrt\u00fck": 7822,
  "\u2581connected": 7823,
  "\u2581kuzey": 7824,
  "i\u011fi": 7825,
  "leniyor": 7826,
  "\u2581Gerek": 7827,
  "bert": 7828,
  "\u2581s\u0131f\u0131r": 7829,
  "Pa": 7830,
  "emiyor": 7831,
  "ts": 7832,
  "oloji": 7833,
  "\u2581\u00f6len": 7834,
  "bat": 7835,
  "\u2581y\u00f6n\u00fcnde": 7836,
  "\u2581taze": 7837,
  "\u2581h\u0131zla": 7838,
  "\u2581k\u0131s\u0131m": 7839,
  "\u2581istemezsin": 7840,
  "\u2581Margaret": 7841,
  "ens": 7842,
  "LL": 7843,
  "\u2581pissed": 7844,
  "\u2581design": 7845,
  "\u2581dump": 7846,
  "\u2581sorum": 7847,
  "\u2581Soon": 7848,
  "\u2581Din": 7849,
  "\u2581tak\u0131l": 7850,
  "\u2581mesafe": 7851,
  "\u2581de\u011fi\u015fiklik": 7852,
  "\u011f\u0131": 7853,
  "\u2581harita": 7854,
  "\u2581alaca\u011f\u0131z": 7855,
  "\u2581hire": 7856,
  "\u2581Siyah": 7857,
  "\u2581dinlemek": 7858,
  "\u2581f\u0131rt\u0131na": 7859,
  "ator": 7860,
  "\u2581ja": 7861,
  "\u2581d\u00fc\u015fer": 7862,
  "\u2581s\u0131rf": 7863,
  "\u2581yaparak": 7864,
  "imizin": 7865,
  "\u2581cennet": 7866,
  "\u2581recent": 7867,
  "La": 7868,
  "\u2581yolla": 7869,
  "\u2581ez": 7870,
  "\u2581al\u0131nd\u0131": 7871,
  "\u2581Birinin": 7872,
  "\u2581etmi\u015fti": 7873,
  "\u2581Lin": 7874,
  "\u2581earned": 7875,
  "\u2581officers": 7876,
  "n\u0131z\u0131n": 7877,
  "\u2581joined": 7878,
  "\u2581joint": 7879,
  "\u2581Ulusal": 7880,
  "19": 7881,
  "likten": 7882,
  "\u2581ipucu": 7883,
  "\u00fc\u015f": 7884,
  "\u2581korkuyor": 7885,
  "\u2581derhal": 7886,
  "\u2581Mavi": 7887,
  "RO": 7888,
  "\u2581Said": 7889,
  "\u2581Play": 7890,
  "\u2581konu\u015fur": 7891,
  "\u2581haz\u0131rla": 7892,
  "\u2581y\u0131l\u0131": 7893,
  "\u2581Ban": 7894,
  "lu\u011fa": 7895,
  "\u2581Den": 7896,
  "\u2581kicked": 7897,
  "\u2581yapt\u0131lar": 7898,
  "\u2581crowd": 7899,
  "\u2581reported": 7900,
  "\u2581rescue": 7901,
  "\u2581Yere": 7902,
  "\u2581Hol": 7903,
  "lu\u011fun": 7904,
  "@": 7905,
  "\u2581cheap": 7906,
  "\u2581slave": 7907,
  "\u2581kar\u015f\u0131l\u0131\u011f\u0131nda": 7908,
  "\u2581usta": 7909,
  "\u2581Wall": 7910,
  "\u2581pounds": 7911,
  "\u25812000": 7912,
  "\u2581revelations": 7913,
  "\u2581deney": 7914,
  "\u2581attitude": 7915,
  "\u2581Italian": 7916,
  "Onu": 7917,
  "\u2581S\u0131k\u0131": 7918,
  "\u2581Gentlemen": 7919,
  "Let": 7920,
  "\u2581Lewis": 7921,
  "\u2581gideyim": 7922,
  "\u2581Meryem": 7923,
  "\u2581konu\u015ftuk": 7924,
  "\u2581Bay\u0131m": 7925,
  "\u2581sa\u011fol": 7926,
  "\u2581Memur": 7927,
  "\u2581diledi\u011fini": 7928,
  "\u2581Almost": 7929,
  "\u2581tan\u0131y": 7930,
  "\u2581\u015eehir": 7931,
  "\u2581dahaki": 7932,
  "\u2581tall": 7933,
  "\u2581var\u0131m": 7934,
  "\u2581yazd\u0131": 7935,
  "mbo": 7936,
  "\u2581Bon": 7937,
  "\u2581\u015fans\u0131m": 7938,
  "\u2581etmeliyim": 7939,
  "\u2581Tara": 7940,
  "\u2581aramaya": 7941,
  "\u2581ekle": 7942,
  "yece\u011fim": 7943,
  "\u2581duy": 7944,
  "\u2581\u00e7ocu\u011fum": 7945,
  "\u2581beden": 7946,
  "\u2581checking": 7947,
  "\u2581Clay": 7948,
  "\u2581younger": 7949,
  "\u2581Hedef": 7950,
  "\u2581hunt": 7951,
  "\u2581Stu": 7952,
  "\u2581y\u0131lan": 7953,
  "\u2581Homer": 7954,
  "\u2581anlatmak": 7955,
  "\u2581rengi": 7956,
  "\u2581boz": 7957,
  "\u2581hasar": 7958,
  "\u2581kimlik": 7959,
  "\u2581uzman": 7960,
  "meyece\u011fini": 7961,
  "\u2581Mickey": 7962,
  "\u2581messages": 7963,
  "\u2581Kazan": 7964,
  "\u2581anlamak": 7965,
  "\u2581Karl": 7966,
  "\u2581convinced": 7967,
  "\u2581Bri": 7968,
  "\u2581\u015furada": 7969,
  "\u2581University": 7970,
  "\u2581series": 7971,
  "\u2581a\u015fa\u011f\u0131ya": 7972,
  "eb": 7973,
  "\u2581Chan": 7974,
  "\u2581sinyal": 7975,
  "\u2581anla\u015f": 7976,
  "\u2581ihtimal": 7977,
  "\u2581e\u015fittir": 7978,
  "Se": 7979,
  "\u2581forest": 7980,
  "EL": 7981,
  "om": 7982,
  "\u2581\u00c7eviri": 7983,
  "cent": 7984,
  "\u2581g\u00f6sterece\u011fim": 7985,
  "\u2581adams\u0131n": 7986,
  "\u2581systems": 7987,
  "\u2581toz": 7988,
  "\u2581Herkese": 7989,
  "\u2581biridir": 7990,
  "\u2581bulu\u015f": 7991,
  "\u2581etc": 7992,
  "\u2581kand\u0131r": 7993,
  "\u2581\u00fclkede": 7994,
  "\u2581kadeh": 7995,
  "\u2581Dear": 7996,
  "\u2581d\u00f6k": 7997,
  "\u2581Gayet": 7998,
  "\u2581Birinci": 7999,
  "\u2581Lex": 8000,
  "\u2581Russell": 8001,
  "\u2581kurulu": 8002,
  "\u2581WAS": 8003,
  "\u2581kat\u0131nda": 8004,
  "\u2581ideal": 8005,
  "\u2581reklam": 8006,
  "\u25812007": 8007,
  "\u2581Malcolm": 8008,
  "\u2581geli\u015ftir": 8009,
  "\u2581ser": 8010,
  "\u2581saati": 8011,
  "\u2581\u00f6l": 8012,
  "\u2581dev": 8013,
  "\u2581\u0130stersen": 8014,
  "\u2581M\u00fcd\u00fcr": 8015,
  "\u2581port": 8016,
  "\u2581Thought": 8017,
  "\u2581curious": 8018,
  "\u2581Therefore": 8019,
  "\u2581giriyor": 8020,
  "\u2581Walt": 8021,
  "\u2581haf\u0131za": 8022,
  "\u2581okulda": 8023,
  "\u2581bulunur": 8024,
  "\u2581laws": 8025,
  "tu\u011fu": 8026,
  "\u2581Ker": 8027,
  "\u2581gergin": 8028,
  "Siz": 8029,
  "\u2581arkada\u015flar\u0131m": 8030,
  "\u2581Annemin": 8031,
  "\u2581associate": 8032,
  "\u2581ibret": 8033,
  "\u2581Sigara": 8034,
  "\u2581Maya": 8035,
  "\u2581sand": 8036,
  "\u2581Hindistan": 8037,
  "\u2581Stefan": 8038,
  "\u2581gelene": 8039,
  "\u2581etkili": 8040,
  "\u2581ya\u015f\u0131yorum": 8041,
  "\u2581Cumartesi": 8042,
  "\u2581zero": 8043,
  "\u2581Each": 8044,
  "\u2581hapishane": 8045,
  "\u2581Japanese": 8046,
  "\u2581\u00e7alma": 8047,
  "\u2581Farkl\u0131": 8048,
  "fil": 8049,
  "\u2581Gor": 8050,
  "\u2581gitmeliyiz": 8051,
  "\u2581haval\u0131": 8052,
  "\u2581vermez": 8053,
  "\u2581Qua": 8054,
  "\u2581tahliye": 8055,
  "\u2581Union": 8056,
  "\u2581Eee": 8057,
  "\u2581Ren": 8058,
  "\u2581severe": 8059,
  "\u2581Anybody": 8060,
  "\u2581k\u00f6y": 8061,
  "\u2581Kolay": 8062,
  "\u2581durumunda": 8063,
  "\u2581entered": 8064,
  "\u2581g\u00f6r\u00fcn\u00fcyordu": 8065,
  "\u2581prevent": 8066,
  "\u2581perform": 8067,
  "\u2581d\u00fc\u015f\u00fcnm\u00fcyor": 8068,
  "\u2581g\u00f6t\u00fcr\u00fcr": 8069,
  "\u2581Han\u0131mefendi": 8070,
  "\u2581kum": 8071,
  "\u2581Bank": 8072,
  "\u2581Step": 8073,
  "\u2581g\u00fcne": 8074,
  "\u2581tests": 8075,
  "rek": 8076,
  "\u2581Jennifer": 8077,
  "layabilir": 8078,
  "\u2581CD": 8079,
  "\u2581March": 8080,
  "\u2581foto\u011fraf\u0131": 8081,
  "\u2581breathing": 8082,
  "\u2581k\u0131zlar\u0131": 8083,
  "\u2581raporu": 8084,
  "\u2581utan\u00e7": 8085,
  "\u2581do\u011frudan": 8086,
  "ET": 8087,
  "\u2581di\u011ferleri": 8088,
  "\u2581gizlice": 8089,
  "las": 8090,
  "\u2581dolarl\u0131k": 8091,
  "\u0130\u015fte": 8092,
  "\u2581Sheriff": 8093,
  "lenen": 8094,
  "\u2581tarif": 8095,
  "\u2581Michelle": 8096,
  "\u2581zaman\u0131m\u0131z": 8097,
  "\u2581Tre": 8098,
  "\u2581d\u00f6n\u00fcn": 8099,
  "\u2581tecr\u00fcbe": 8100,
  "\u2581failure": 8101,
  "form": 8102,
  "\u2581shift": 8103,
  "\u2581ALL": 8104,
  "\u2581g\u00fcvenilir": 8105,
  "\u2581religious": 8106,
  "\u2581\u00e7\u0131karsa": 8107,
  "mi\u015fim": 8108,
  "\u2581b\u00f6lgede": 8109,
  "She": 8110,
  "\u2581Der": 8111,
  "\u2581giderim": 8112,
  "\u2581scary": 8113,
  "\u2581answered": 8114,
  "\u2581t\u0131p": 8115,
  "\u2581pills": 8116,
  "r\u00fc": 8117,
  "\u2581G\u00f6rev": 8118,
  "mu\u015fsun": 8119,
  "oid": 8120,
  "\u2581m\u00fcsaade": 8121,
  "pen": 8122,
  "\u2581Kaza": 8123,
  "\u2581Tuhaf": 8124,
  "\u2581\u0130lgin\u00e7": 8125,
  "\u2581okudum": 8126,
  "ella": 8127,
  "\u2581Arkada\u015f": 8128,
  "\u2581k\u00f6t\u00fcs\u00fc": 8129,
  "\u2581plate": 8130,
  "\u2581birbirimize": 8131,
  "\u2581poison": 8132,
  "\u2581Leonard": 8133,
  "\u0131ld\u0131\u011f\u0131": 8134,
  "\u2581etmekten": 8135,
  "\u2581olmal\u0131y\u0131z": 8136,
  "\u2581olmad\u0131\u011f\u0131na": 8137,
  "\u2581etkileyici": 8138,
  "\u2581derim": 8139,
  "\u2581iken": 8140,
  "\u2581tarz": 8141,
  "\u2581\u00e7\u0131kar\u0131n": 8142,
  "\u2581e\u011fitimi": 8143,
  "\u2581tan\u0131m\u0131yorum": 8144,
  "\u2581s\u00fcrede": 8145,
  "\u2581a\u00e7ar": 8146,
  "\u2581odd": 8147,
  "\u2581ni\u00e7in": 8148,
  "\u2581adalet": 8149,
  "\u2581motherfucker": 8150,
  "\u2581Booth": 8151,
  "\u2581Woo": 8152,
  "\u2581ekmek": 8153,
  "\u2581Elimizde": 8154,
  "\u2581kontrol\u00fc": 8155,
  "\u2581i\u00e7ecek": 8156,
  "\u2581tutan": 8157,
  "\u2581Sto": 8158,
  "\u2581Kimsin": 8159,
  "\u2581Pay": 8160,
  "\u2581t\u00fcr\u00fc": 8161,
  "t\u0131\u011f\u0131n\u0131": 8162,
  "\u2581te\u015fvik": 8163,
  "\u2581bahsetti": 8164,
  "\u2581Vali": 8165,
  "\u2581de\u011feri": 8166,
  "\u2581winter": 8167,
  "\u2581Shoot": 8168,
  "\u2581\u00e7al\u0131\u015f\u0131rken": 8169,
  "\u2581Thursday": 8170,
  "\u2581400": 8171,
  "\u2581sonu\u00e7lar\u0131": 8172,
  "rma": 8173,
  "\u2581Prens": 8174,
  "\u2581bekliyorsun": 8175,
  "\u2581hastal\u0131\u011f\u0131": 8176,
  "\u2581kesme": 8177,
  "\u2581pe": 8178,
  "sinler": 8179,
  "\u2581Rebecca": 8180,
  "\u2581\u00fcyeleri": 8181,
  "\u2581Harold": 8182,
  "\u2581repeat": 8183,
  "\u2581tan\u0131": 8184,
  "\u2581yellow": 8185,
  "izing": 8186,
  "\u2581whore": 8187,
  "lem": 8188,
  "\u2581Mad": 8189,
  "\u2581setting": 8190,
  "\u2581switch": 8191,
  "mann": 8192,
  "\u2581inceleme": 8193,
  "Bunu": 8194,
  "\u2581Norman": 8195,
  "\u2581Arkada\u015f\u0131n": 8196,
  "\u2581de\u011fi\u015ftirmek": 8197,
  "\u2581Vol": 8198,
  "\u2581competition": 8199,
  "\u2581ediliyor": 8200,
  "\u2581izliyor": 8201,
  "\u2581hi\u00e7biri": 8202,
  "\u2581oyuncak": 8203,
  "\u2581sorumluluk": 8204,
  "iliyor": 8205,
  "\u2581bahsediyorum": 8206,
  "\u2581anla": 8207,
  "\u2581ata": 8208,
  "\u2581bilet": 8209,
  "\u2581insana": 8210,
  "\u2581yapmad\u0131": 8211,
  "\u2581Jonathan": 8212,
  "\u2581verip": 8213,
  "\u2581\u015feklinde": 8214,
  "melisiniz": 8215,
  "\u2581katta": 8216,
  "\u2581yetenekli": 8217,
  "\u2581dola\u015f": 8218,
  "\u2581managed": 8219,
  "\u2581Might": 8220,
  "\u2581Abi": 8221,
  "\u2581g\u00f6r\u00fcn\u00fc\u015f": 8222,
  "\u2581T\u00fcrk": 8223,
  "\u2581sexy": 8224,
  "rim": 8225,
  "\u2581custody": 8226,
  "\u2581ba\u011f\u0131r": 8227,
  "nizde": 8228,
  "\u2581Mon": 8229,
  "\u2581K\u00f6pek": 8230,
  "\u2581d\u00fc\u015f\u00fcnd\u00fc\u011f\u00fcm": 8231,
  "\u2581apparently": 8232,
  "stone": 8233,
  "\u2581Eyl\u00fcl": 8234,
  "\u2581seviyorsun": 8235,
  "\u2581g\u00fcnd\u00fcz": 8236,
  "m\u0131yoruz": 8237,
  "\u2581g\u00f6t\u00fcrecek": 8238,
  "meliydim": 8239,
  "\u2581Japon": 8240,
  "\u2581Penny": 8241,
  "Man": 8242,
  "mir": 8243,
  "\u2581Army": 8244,
  "\u2581s\u00fc": 8245,
  "\u2581duvar": 8246,
  "\u2581\u00e7al\u0131\u015fm\u0131yor": 8247,
  "\u2581Castle": 8248,
  "\u2581Yan\u0131nda": 8249,
  "\u2581hated": 8250,
  "\u2581shots": 8251,
  "\u2581yandan": 8252,
  "\u2581carefully": 8253,
  "\u2581extremely": 8254,
  "\u2581zaman\u0131m": 8255,
  "\u2581duran": 8256,
  "\u2581g\u00f6zleri": 8257,
  "just": 8258,
  "\u2581k\u0131\u00e7\u0131n\u0131": 8259,
  "\u2581environment": 8260,
  "dal": 8261,
  "\u2581Pavlus": 8262,
  "nizin": 8263,
  "\u2581edilir": 8264,
  "\u2581koyay\u0131m": 8265,
  "bol": 8266,
  "eder": 8267,
  "\u2581ma\u00e7": 8268,
  "\u2581spending": 8269,
  "\u2581treated": 8270,
  "\u2581raz\u0131": 8271,
  "\u2581Gaz": 8272,
  "\u2581K\u0131z\u0131n": 8273,
  "\u2581kokusu": 8274,
  "\u2581s\u00f6yleyemem": 8275,
  "\u2581g\u00f6nderme": 8276,
  "\u2581Geliyor": 8277,
  "\u2581y\u00fcz\u00fc": 8278,
  "\u2581learning": 8279,
  "\u2581\u00f6d\u00fcn\u00e7": 8280,
  "\u2581Under": 8281,
  "\u2581\u00f6l\u00fcyor": 8282,
  "\u2581\u2022": 8283,
  "uma": 8284,
  "\u2581\u0130mdat": 8285,
  "\u2581financial": 8286,
  "\u2581coach": 8287,
  "set": 8288,
  "\u2581bekleyen": 8289,
  "\u2581geliyorsun": 8290,
  "tta": 8291,
  "\u2581unuttun": 8292,
  "\u2581ahiret": 8293,
  "\u2581kurtard\u0131": 8294,
  "\u2581Council": 8295,
  "\u2581miracle": 8296,
  "\u2581bileyim": 8297,
  "\u2581tri": 8298,
  "\u2581a\u015f": 8299,
  "\u2581vaka": 8300,
  "\u2581yar\u0131\u015fma": 8301,
  "\u2581konu\u015facak": 8302,
  "\u2581Merkezi": 8303,
  "inize": 8304,
  "\u2581Can\u0131m": 8305,
  "\u2581y\u00fcz\u00fcne": 8306,
  "\u2581birazc\u0131k": 8307,
  "\u2581web": 8308,
  "di\u011finiz": 8309,
  "\u2581beklemek": 8310,
  "\u2581ID": 8311,
  "\u2581Sor": 8312,
  "\u2581sonras\u0131": 8313,
  "rah": 8314,
  "\u2581kurma": 8315,
  "\u2581istiyorsan\u0131z": 8316,
  "\u2581May\u0131s": 8317,
  "\u2581cells": 8318,
  "\u2581\u00e7al\u0131\u015f\u0131r": 8319,
  "\u2581e\u011flen": 8320,
  "leyin": 8321,
  "\u2581konu\u015fmam\u0131z": 8322,
  "cal": 8323,
  "\u2581kg": 8324,
  "\u2581television": 8325,
  "\u2581Being": 8326,
  "\u2581produce": 8327,
  "\u2581gitmemiz": 8328,
  "\u2581ba\u011f\u0131": 8329,
  "\u2581Jeremy": 8330,
  "\u2581millions": 8331,
  "\u2581debt": 8332,
  "\u2581desires": 8333,
  "\u2581i\u00e7i": 8334,
  "\u2581sap\u0131k": 8335,
  "sayd\u0131": 8336,
  "\u2581anlamda": 8337,
  "lam": 8338,
  "\u2581gitmedi": 8339,
  "\u2581Kid": 8340,
  "\u2581Kong": 8341,
  "\u2581yard\u0131mc\u0131s\u0131": 8342,
  "\u2581edge": 8343,
  "\u2581puan": 8344,
  "\u2581Light": 8345,
  "\u2581Buralarda": 8346,
  "\u2581hastanede": 8347,
  "\u2581gen": 8348,
  "mad\u0131": 8349,
  "\u2581Turkish": 8350,
  "\u2581etmen": 8351,
  "\u2581leading": 8352,
  "\u2581H\u0131zl\u0131": 8353,
  "\u2581Temmuz": 8354,
  "\u2581mama": 8355,
  "\u2581iron": 8356,
  "\u2581Hafta": 8357,
  "\u2581yatma": 8358,
  "t\u0131\u011f\u0131": 8359,
  "\u2581Central": 8360,
  "\u2581west": 8361,
  "\u2581d\u00fc\u015fm\u00fc\u015f": 8362,
  "\u2581actual": 8363,
  "\u2581degrees": 8364,
  "\u2581Mak": 8365,
  "\u2581Monica": 8366,
  "\u2581vaktim": 8367,
  "\u2581cad\u0131": 8368,
  "\u2581July": 8369,
  "\u2581orman": 8370,
  "ugh": 8371,
  "\u2581Soru": 8372,
  "\u2581Banka": 8373,
  "\u2581Dinleyin": 8374,
  "\u2581g\u00f6rm\u00fcyor": 8375,
  "\u2581Buck": 8376,
  "\u2581grant": 8377,
  "\u2581sorunlar\u0131": 8378,
  "\u2581kendinizi": 8379,
  "\u2581earn": 8380,
  "\u2581ayr\u0131ld\u0131": 8381,
  "\u011fim": 8382,
  "\u2581bal\u0131\u011f\u0131": 8383,
  "\u2581believing": 8384,
  "\u2581\u00f6l\u00fcr": 8385,
  "\u2581150": 8386,
  "\u2581\u00f6yleydi": 8387,
  "klar\u0131": 8388,
  "\u2581tra": 8389,
  "\u2581ekonomi": 8390,
[...]
